, 432411392
. 386896740
" 188596173
the 166815034
de 112697074
in 93552635
of 88006761
a 85030105
and 82097758
to 66149626
) 62038906
( 59744923
la 47180542
i 47103151
en 39795444
was 38423425
is 29450838
der 27837001
の 26705604
as 24430065
on 24226607
The 23181014
for 22449958
he 21788713
that 20967282
: 20922801
with 20507846
und 20463441
に 20257172
e 19366391
y 19087576
his 19011344
die 18891173
's 18310590
le 18059661
di 17677839
des 17632082
- 17272633
an 17268302
в 17087672
at 17086328
är 17084581
un 17064651
it 16888638
et 16776980
el 16754498
by 16656009
que 15801221
は 15714534
den 15093296
l' 15077613
her 14647263
from 13791189
た 13741521
del 13592502
à 13590086
を 13548869
る 12739986
и 12135602
il 12113766
she 11963945
て 11728495
In 11609846
で 11518172
' 11517917
you 11341883
が 11321979
し 11307704
と 11220088
的 10773387
had 10676053
se 10618935
い 10376772
von 10332829
w 10219519
do 10209943
; 10134408
est 10104332
er 9741950
d' 9708763
van 9631780
are 9578903
were 9514180
da 9472909
les 9403751
o 9333577
be 9324675
es 9259336
du 9253385
but 9008114
och 8933217
or 8482170
con 8394415
ed 8340813
't 8113190
ing 8105366
una 7993822
al 7979802
? 7790308
im 7500470
-@@ 7498061
my 7463921
no 7388908
als 7370576
s 7351573
not 7312199
one 7307065
los 7185038
na 7019127
La 6948761
which 6928339
por 6844792
have 6796492
me 6769210
् 6652986
\ 6619979
ist 6613971
this 6595862
mit 6563584
/ 6536989
him 6514553
れ 6427407
une 6371547
het 6359350
な 6350402
een 6343887
на 6268605
1 6236005
年 6221507
med 6198674
per 6123358
das 6084822
they 5965995
・ 5902002
2 5840928
% 5646876
has 5641933
also 5625696
He 5620825
dem 5580316
che 5559587
wurde 5518108
out 5511872
their 5413295
up 5392558
um 5313602
em 5290814
A 5282302
all 5278295
av 5257559
dans 5251225
っ 5243270
been 5169200
who 5158841
あ 5144199
its 5132529
first 5128604
Die 5123325
son 5078217
au 5014528
さ 5009612
par 4995584
para 4970408
into 4873977
(@@ 4861519
3 4850567
su 4831445
so 4785315
zu 4777568
Il 4713779
с 4709928
re@@ 4694157
z 4667070
km 4604029
war 4540139
ein 4513073
è 4508896
las 4481767
auf 4460013
when 4437153
Den 4429680
would 4427340
della 4412677
De 4393162
° 4383289
، 4353676
time 4344059
für 4343741
como 4332178
En 4326982
It 4304922
I 4296920
eine 4295638
over 4239571
un@@ 4192961
am 4150367
said 4147354
В 4105849
في 4078547
sich 4073189
we 4062509
4 4056962
what 4054454
two 4022287
there 3994448
about 3969149
– 3932070
pour 3908874
then 3905168
Le 3892107
om 3878084
can 3872131
in@@ 3844505
more 3837406
s@@ 3798347
é 3758923
ation 3731958
after 3711896
si 3678098
qui 3665352
する 3595483
other 3592772
back 3589849
man 3540791
us 3533119
te 3526400
5 3484502
も 3483360
like 3444045
S@@ 3410746
them 3390329
som 3357610
if 3347262
года 3285143
t 3278898
ate 3235329
nel 3209484
en@@ 3208414
El 3185203
only 3182573
10 3174483
sur 3123989
6 3085575
os 3040968
aus 3023981
could 3014263
era 2995555
月 2975341
mm 2975027
ou 2959865
door 2937337
just 2910246
where 2896174
! 2877965
auch 2877418
K@@ 2856204
New 2848715
在 2846301
C. 2842192
bis 2828298
من 2825034
ar 2817060
り 2793072
k@@ 2772674
an@@ 2747706
ha 2729282
made 2728143
A@@ 2719783
ch@@ 2705261
2010 2698157
T@@ 2696086
nach 2683684
là 2680961
come 2679733
before 2668893
than 2657898
G@@ 2656772
7 2652817
some 2647766
から 2646614
8 2632241
through 2625856
ve 2615418
W 2604442
D@@ 2599260
m 2597560
de@@ 2587762
B@@ 2586751
ne 2581929
d 2575976
d@@ 2572754
P@@ 2568598
er@@ 2550438
avec 2533964
sie 2530205
now 2530086
Der 2511995
uma 2507827
ers 2507236
году 2500795
bei 2497573
met 2493631
O@@ 2490534
years 2488949
по 2484288
down 2482684
ver@@ 2481425
well 2463469
... 2463263
t@@ 2461857
film 2448206
M@@ 2429555
是 2426191
led 2418834
E@@ 2410266
ar@@ 2408693
się 2383145
under 2379153
månaden 2378987
12 2375530
2011 2373384
lo 2369837
entre 2369195
op 2368834
voor 2359915
al@@ 2352616
new 2348959
L@@ 2344463
'd 2339416
sa 2328315
trakten 2327932
nederbörd 2323440
men 2321848
R@@ 2318839
y@@ 2316475
fue 2312377
plus 2312354
will 2311282
einer 2310633
W@@ 2307281
9 2300345
between 2284001
way 2280541
On 2272925
zum 2264978
most 2257993
dos 2255287
20 2251323
com 2250140
g@@ 2249714
N@@ 2238271
h@@ 2237984
2009 2231089
did 2228783
2008 2225767
C 2225723
F@@ 2223150
2012 2222745
H@@ 2222039
C@@ 2221009
ce 2218110
part 2210855
u 2206171
w@@ 2205156
later 2195311
ated 2160579
werden 2152712
f@@ 2149550
st@@ 2149101
к 2138922
around 2138037
2007 2135493
ten 2134518
This 2133877
15 2133513
used 2127468
人 2118738
2006 2108216
こと 2106988
being 2100739
el@@ 2088391
during 2088328
2013 2081404
know 2080053
2014 2076351
album 2070564
such 2068621
日 2067700
ligger 2066204
runt 2066106
не 2064397
på 2059984
any 2047629
don 2046312
O 2041117
một 2039669
ab@@ 2035567
against 2032965
age 2032188
11 2027822
V@@ 2024877
three 2021079
ly 2005873
able 2005736
L' 2004878
off 2003679
l 2002346
sont 1997344
while 1979618
j@@ 1978656
из 1977707
2015 1973382
b@@ 1970937
your 1968013
ses 1966156
go 1959292
get 1954213
year 1951055
18 1936293
sh@@ 1933823
ad 1926238
United 1923602
even 1923038
30 1922251
on@@ 1917803
ma 1917389
z@@ 1903925
dei 1903572
e@@ 1895806
th@@ 1892286
durch 1892002
ans 1886804
head 1885795
n@@ 1885783
ett 1884418
finns 1883826
l@@ 1881715
known 1879942
people 1878037
k 1872297
uit 1870959
how 1870549
didn 1862398
alla 1858825
ro@@ 1858511
werd 1850704
place 1849133
University 1846949
until 1846190
dell' 1845813
m@@ 1844244
sua 1841748
or@@ 1840972
ri@@ 1840845
ad@@ 1831949
mais 1831682
n 1829252
aux 1828007
I@@ 1825498
2016 1824566
và 1823991
both 1817439
p@@ 1810067
U@@ 1808755
zijn 1808287
many 1808158
& 1803397
o@@ 1803344
einem 1798302
long 1792610
sind 1787810
see 1787189
ent 1785982
work 1774297
Les 1767957
16 1763863
_ 1763728
elle 1761896
second 1760885
của 1760760
non 1759745
end 1757518
became 1751129
due 1745779
parte 1743908
meter 1743684
nicht 1737692
still 1735454
s' 1734553
at@@ 1731976
う 1731209
Das 1727708
American 1727291
2005 1723737
был 1722338
2000 1717792
一 1710142
Im 1707688
team 1707251
c 1705257
được 1704181
14 1702330
más 1699450
John 1699103
season 1696726
again 1695779
wird 1691165
2004 1684175
く 1682169
di@@ 1679771
中 1679209
born 1679058
roku 1677247
name 1676671
ingår 1676051
le@@ 1674617
II 1671562
am@@ 1668029
ser 1666508
eyes 1663600
right 1661286
took 1661050
c@@ 1659570
det 1655299
'@@ 1654724
foi 1654187
13 1651643
u@@ 1651263
because 1650062
över 1649145
ter 1646392
be@@ 1646305
Z@@ 1640332
trong 1630642
25 1630074
J@@ 1627315
land 1626585
es@@ 1625006
ze 1624766
ra@@ 1617935
や 1615378
ations 1612569
p 1611485
ts 1599076
family 1595768
delen 1594353
よ 1592636
ano 1592164
qu' 1590102
including 1587915
day 1583929
ata 1579879
v@@ 1579641
zur 1578933
а 1578573
San 1574341
einen 1574179
won 1572590
h 1572121
17 1563609
dis@@ 1555061
2017 1547726
和 1544793
über 1542939
'm 1541609
été 1537537
till 1536100
oder 1533135
An@@ 1532814
same 1530540
ant 1528741
area 1517689
от 1516154
World 1514771
ity 1514190
school 1511125
away 1510510
что 1508609
going 1504941
She 1504618
found 1503090
is@@ 1499937
sus 1497838
ge@@ 1496501
att 1494216
formula 1491826
dal 1490635
own 1487371
may 1486527
> 1483538
side 1483177
York 1483078
et@@ 1480106
much 1476057
August 1474065
ine 1466239
Al@@ 1461232
September 1456468
b 1455700
called 1454396
face 1453698
] 1444351
here 1442274
nella 1439566
hand 1439345
ous 1437644
Life 1434195
very 1434105
these 1432541
wurden 1431671
24 1431162
ti@@ 1429222
National 1425813
[ 1425065
då 1423116
< 1422870
e-@@ 1421581
i@@ 1421096
Er 1418146
g 1417747
ato 1413393
As 1412915
left 1412638
năm 1410966
it@@ 1406169
se@@ 1405832
since 1402138
Ch@@ 1399643
landet 1399587
po@@ 1390045
ka 1389510
sp@@ 1389115
April 1387258
After 1384343
19 1380118
havet 1379835
bi@@ 1378941
States 1378469
life 1373703
li@@ 1372988
』 1371427
as@@ 1368645
『 1366327
club 1365837
make 1365822
ra 1365299
’ 1363328
co@@ 1362194
each 1362078
too 1355854
never 1355728
ada 1354328
その 1352538
delle 1351160
our 1351055
có 1350531
hij 1349357
aan 1347398
Ver@@ 1344851
ary 1342634
2001 1342155
21 1338981
familjen 1338170
2003 1335146
om@@ 1329703
100 1327771
comme 1326103
began 1326024
take 1325780
ol@@ 1325106
Los 1323633
2002 1323300
con@@ 1322593
number 1321648
ia 1321495
ana 1320745
November 1319713
ic@@ 1319625
ally 1318226
a@@ 1316461
ta 1314208
last 1312661
released 1311727
played 1310372
ent@@ 1309269
ya 1300868
для 1299682
dass 1299491
ado 1297771
held 1296770
use 1296161
want 1294710
日本 1294216
più 1293824
several 1293573
huvudstaden 1291925
了 1291182
後 1288896
another 1288436
22 1286623
home 1280045
его 1279582
ag@@ 1276348
के 1275990
$ 1274527
² 1271333
series 1271121
* 1268900
city 1267693
ap@@ 1266333
wie 1252878
ら 1252248
City 1250620
Mar@@ 1249942
ors 1249825
op@@ 1249251
School 1247781
0 1247228
unter 1245796
state 1245261
släktet 1243107
など 1242376
four 1237891
pas 1236763
good 1234954
si@@ 1234278
anche 1232775
者 1231521
23 1229744
deux 1226760
r@@ 1225560
sono 1225126
お 1221550
're 1221528
em@@ 1220675
think 1218983
those 1218499
ai 1217823
ted 1217755
nie 1217677
fu 1217663
beskrevs 1217283
came 1217263
Årsmedeltemperaturen 1216989
medeltemperaturen 1216509
varmaste 1216477
kallaste 1216441
set 1209828
как 1209730
pre@@ 1209377
underarter 1205037
game 1204152
Catalogue 1201972
per@@ 1200553
dat 1200247
ina 1199429
за 1198739
red 1198281
Y@@ 1198184
1999 1195649
ens 1194358
looked 1192764
। 1192476
population 1192380
went 1191528
有 1190439
line 1189184
County 1189069
Inga 1184596
early 1183794
ale 1181207
millimeter 1176983
invånare 1176073
listade 1175414
final 1174441
band 1173946
Jahr 1172411
у 1171398
على 1170087
house 1168841
im@@ 1168369
In@@ 1168144
この 1167933
let 1167825
för 1165302
genomsnitt 1163909
torraste 1161370
årsnederbörd 1161340
Genomsnittlig 1161320
regnigaste 1161300
something 1161297
sk@@ 1160243
thought 1159863
France 1159437
Ar@@ 1153133
ung 1149794
до 1149578
januari 1147513
ao 1145073
world 1144904
vor 1143453
kvadratkilometer 1143168
ó 1142877
ée 1140100
Het 1138640
car@@ 1138390
Sch@@ 1136486
small 1136118
上 1134996
pro@@ 1134553
x 1134475
28 1133303
South 1133129
following 1131519
ded 1129372
asked 1128057
= 1127431
26 1127386
May 1126904
sub@@ 1126869
ical 1125010
つ 1124388
room 1123858
ons 1120035
king 1118673
for@@ 1116291
он 1113877
par@@ 1112859
League 1110048
got 1109088
о 1108720
mar@@ 1107449
little 1105734
few 1105302
re 1104518
27 1102442
os@@ 1100715
group 1100529
но 1097708
r 1097697
sch@@ 1097139
berg 1096824
along 1096523
ica 1095156
waren 1094175
ando 1090325
St@@ 1090144
ac@@ 1088574
bl@@ 1084200
station 1083822
water 1083182
られ 1082723
他 1082161
B 1081395
il@@ 1081383
ため 1078253
They 1075928
ont 1073821
gli 1073640
Es 1073550
ob@@ 1073033
village 1069117
1998 1067626
行 1067609
ating 1064220
ie 1064171
ks 1064019
50 1062353
ot@@ 1061510
ut@@ 1061086
ex@@ 1059901
han 1058952
var 1057974
body 1052896
od 1048934
durante 1048605
March 1048474
local 1046466
town 1046267
June 1045594
old 1042135
bar@@ 1040850
man@@ 1039138
ak@@ 1038828
His 1038695
former 1038007
1990 1037948
này 1037757
tra 1035968
2018 1031750
look 1031035
based 1030931
show 1026515
Bar@@ 1023160
January 1021645
July 1021512
ville 1020893
sc@@ 1020679
British 1019265
system 1019260
ur@@ 1018746
ch 1018513
ter@@ 1018404
ds 1017052
ru@@ 1015474
next 1015402
tot 1015364
Ab@@ 1011109
October 1009783
vom 1008691
her@@ 1008648
single 1007850
alle 1007437
named 1005475
large 1004438
music 1003914
Nel 1003571
29 1001726
т 1000281
ab 999960
seiner 999542
od@@ 999162
located 998727
father 997135
ati 997049
high 996983
ley 995075
su@@ 992606
nur 991273
There 990648
all' 989358
sowie 989151
ki 988648
fait 987184
um@@ 986906
vi@@ 985180
'll 983090
ou@@ 982627
ins 981106
av@@ 980083
public 978839
started 978442
naam 978176
bo@@ 975077
é@@ 973019
các 972932
.@@ 972357
1996 971268
és 970561
ever 970258
lo@@ 969483
At 968333
1997 968184
pi@@ 968144
juli 968091
Nach 967774
form 966316
ings 965986
mo@@ 965736
ów 965420
za 965167
ler 961013
kan 958595
ados 958400
point 957183
over@@ 956543
hat 955639
ul@@ 955308
họ 955013
ische 954981
ischen 954153
ke 954095
第 954018
every 953947
moved 951829
company 950700
noch 950534
why 949474
ing@@ 948880
не@@ 948586
市 948468
field 947967
大 947225
familie 946861
art 945141
a-@@ 944164
th 942114
der@@ 941741
में 941187
without 940717
jest 938878
War 938392
December 936027
est@@ 935373
total 935323
oc@@ 934377
seine 934011
night 933861
should 933095
Con@@ 933003
den@@ 932217
wasn 931986
lui 931985
sein 931467
ge 930866
af@@ 930788
ed@@ 930724
hatte 929586
sobre 928402
1992 928256
turned 927908
suo 926420
Sh@@ 925702
less 925218
though 924333
1995 923484
1994 923321
inter@@ 923200
Car@@ 922753
n' 922633
ni@@ 920956
member 919742
bir 919518
tra@@ 918623
within 918611
mon@@ 917047
need 916927
knew 916756
mi@@ 916368
uno 915109
North 913847
government 913158
cette 912261
31 911742
이 911425
przez 910935
air 910788
wanted 909740
ella 909249
sl@@ 908939
Re@@ 908885
us@@ 908047
served 907859
song 905594
State 904671
building 902999
ic 902466
soort 902080
felt 901009
ard 900951
ach 900666
Paris 900530
40 900377
say 899429
ein@@ 898149
five 898084
aber 896856
ten@@ 896621
Jahre 894813
ces 892021
du@@ 891935
sed 890946
ment 890933
once 890875
car 890657
este 888664
ph@@ 888437
However 888364
top 886049
ной 885898
loài 885878
dalla 883947
built 881998
1991 881476
received 880754
died 880228
إلى 878842
है 878184
best 877182
ci@@ 876294
의 876269
gi@@ 875282
та 875178
ne@@ 870081
Elle 870073
ec@@ 869770
Pro@@ 868897
eerst 868820
original 868396
ting 867339
death 866109
Det 866093
light 865584
ite 863458
saw 863066
1993 863027
ли 861987
via 860098
ла 858364
ile 858121
ry 857146
Par@@ 856495
ma@@ 856385
zwei 856277
he@@ 856168
ates 855322
よう 854535
London 853513
ken 853502
front 852429
Sie 851367
himself 850910
ging 850535
ali 849661
College 849338
また 849286
ка 848287
behind 848154
national 847599
service 847442
together 846945
mer@@ 846753
わ 846598
te@@ 845891
cui 843498
different 842958
play 842497
February 841217
年) 841153
为 840563
put 838569
eg@@ 837782
ante 836341
か 835970
также 835770
West 835545
ding 834369
ber@@ 832168
ner 831188
dé@@ 829899
за@@ 829161
children 828436
da@@ 827658
main 827611
William 826175
ker 823687
1980 823509
у@@ 822848
open 821421
ane 820051
eines 819691
sin 819607
include 819470
x@@ 819445
cor@@ 818894
ą 817601
general 816053
har 815116
century 814359
大@@ 812313
days 811972
anni 810462
名 810095
book 808975
1989 808857
base 808857
help 808580
members 807653
told 806339
ice 806188
もの 805969
| 805816
años 805691
bu@@ 804583
ran 803373
hands 802903
л 802731
también 802582
species 799703
était 797158
worden 796704
do@@ 795768
River 795563
Trakten 794625
1945 793983
部 793261
tu@@ 792659
voice 792099
ées 791689
Su@@ 791606
solo 790668
under@@ 790662
pl@@ 790460
я 788060
across 787760
having 786897
s-@@ 786531
Am 786434
've 786235
oraz 786026
Park 785552
For 783759
bed 782956
R 782614
へ 782432
tion 781611
six 779016
International 777631
adas 777240
dont 776942
really 776325
near 776232
published 775831
During 775704
to@@ 775274
ные 775256
leur 775142
ade 774652
Lake 773628
L 773181
gave 772926
ales 772865
district 772679
zwischen 771572
ship 771133
D 771091
James 768866
ger 767906
wetenschappelijke 767840
gepubliceerd 767366
vers 767110
prima 766687
George 766485
ных 765932
late 765878
mat@@ 765872
tell 765594
были 765581
была 764389
opened 763150
ook 763128
find 762516
まで 761245
1988 761114
often 760681
ics 760439
ese 759358
vid 759162
football 758182
je 757930
año 757290
Em 756657
sure 755783
Paul 755390
power 754611
Per@@ 754245
au@@ 754154
enough 753569
ки 752796
o-@@ 752464
General 751470
家 751171
ny 750861
被 750714
making 749911
에 749900
bij 749398
grande 749327
given 749302
gra@@ 748813
ise 746142
ton 745382
Le@@ 744864
1970 744699
råder 744624
sen 744573
người 744313
dieser 744204
po 744117
geldig 743655
desde 742436
10@@ 741579
mother 741087
等 740184
ling 740035
included 739364
love 739348
Mor@@ 738952
qu@@ 738332
David 737860
no@@ 737575
third 737492
serie 736397
cho 736160
far 735737
order 735133
Jahren 734383
seen 734287
women 733585
stato 733469
ets 733028
ja 732881
major 731768
position 730934
Mon@@ 730524
том 729207
ek@@ 728948
f 728495
было 728108
은 727831
mer 727731
время 726905
seu 726844
Th@@ 726374
où 726236
might 726057
esta 725044
lu@@ 724900
match 724772
ini 723694
по@@ 722288
naar 722068
En@@ 721627
être 721556
provinsen 721089
des@@ 720924
site 720639
́ 720032
ami 719655
ino 719231
ren@@ 719070
học 718477
st 718395
District 718201
Robert 717981
во 717009
ca 716985
pero 716484
4@@ 716414
1987 716303
fut 716302
so@@ 715473
ita 715437
ig@@ 714971
Di@@ 714103
hasta 713785
war@@ 713115
tor@@ 712827
Cup 712515
ò 712316
ah 711955
1986 711692
og@@ 711450
ser@@ 711125
ный 709732
所 709574
times 709298
S 709260
record 708449
va 708388
million 708045
forma 706557
après 704924
No 704125
Cor@@ 703748
run 703529
ow@@ 702978
continued 702939
ho@@ 702838
England 702492
One 702466
St. 701562
Er@@ 701477
ant@@ 701312
cu@@ 700677
X@@ 700449
must 699790
couldn 698961
US 698407
version 698225
col@@ 697777
ir@@ 696344
地 695972
närheten 695848
3@@ 695444
Bo@@ 695125
Se 694536
E 694175
県 693248
moment 693033
н 692886
1984 692783
ona 692718
多 692639
French 692492
become 692290
III 691038
gegen 690989
sen@@ 690834
Charles 690464
pe@@ 690111
TV 690008
aus@@ 689974
प 689893
ani 689856
و 689343
時 689328
case 688813
using 688553
đầu 687968
С 687726
même 686565
1985 686433
English 686067
Club 684904
lost 683946
ance 683836
donde 683549
House 683235
hi@@ 682859
ator 682122
always 681068
M 680823
ak 680769
Runt 680756
ils 680424
country 680173
ungen 679397
fl@@ 679285
ele 679128
на@@ 678353
del@@ 678340
2@@ 678285
Na 677894
nombre 677518
ked 677506
antes 677380
min@@ 677363
worked 676880
When 676334
ey 676314
thing 676023
ely 675637
y-@@ 675300
almost 674569
eb@@ 674341
с@@ 673754
60 672626
ning 672315
Ber@@ 672248
U.S. 672200
give 671981
woman 671839
degli 671569
control 671505
pen@@ 670988
ở 670322
), 670066
— 669289
eller 669216
不 668674
или 668333
important 666756
ty 665646
aussi 665639
dra@@ 664233
е 663930
đã 663308
ore 663305
não 662738
également 662725
jedoch 662597
things 662473
以 662276
cl@@ 661099
sous 660389
до@@ 660375
을 659603
Zeit 659380
ب@@ 659301
Man@@ 659091
5@@ 658967
course 658529
har@@ 658395
alors 657606
högsta 657479
với 656273
ного 656157
ingen 656091
black 655577
1982 655353
ara 654645
ast@@ 654609
при 654177
com@@ 654061
production 653816
ть 653768
however 653629
cur@@ 653458
Thomas 652906
Als 652203
up@@ 652056
ni 652031
1983 652009
law 651762
А@@ 651643
anything 651507
tions 651470
career 651413
ms 650542
returned 650294
punkten 649797
大学 649535
ungs@@ 649430
Stadt 649414
也 648856
200 648472
き 647889
1960 647763
better 647445
close 647412
nothing 647363
ico 647232
El@@ 647130
gen@@ 646735
premier 646446
V 646375
cre@@ 645293
res 645227
ence 644752
Mal@@ 644501
ersten 644436
dopo 644052
está 643775
Du@@ 643477
co 643104
出 643098
ders 642830
1975 642751
Har@@ 642069
rec@@ 641661
子 641543
1972 641134
国 639397
Co@@ 638844
seit 638238
De@@ 637078
history 637054
+ 635859
ran@@ 635601
isch 635564
す 635402
German 635383
ger@@ 634509
州 634190
ainsi 633281
married 633255
ek 633200
fin@@ 632523
feel 632343
Canada 631996
ants 631919
ę 631857
America 631845
kilometer 631817
1979 631598
wy@@ 631178
autres 631060
ari 630735
br 629931
ación 629762
7@@ 628530
hard 628215
aw@@ 626421
ば 625870
8@@ 625801
про@@ 625210
all@@ 625178
augusti 624199
ish 624142
T 623891
anos 623695
support 623117
taken 622874
among 622702
already 622445
established 622285
games 621523
looking 621472
Her@@ 620848
1981 620532
does 620463
1976 619986
inside 619765
1944 619727
Un 619519
sia 619441
ты 618754
6@@ 618537
mor@@ 618533
X 617562
Be@@ 617519
met@@ 617413
1974 617272
others 617136
został 616430
out@@ 616295
från 616278
Australia 616017
ли@@ 615990
Las 615897
而 615169
ным 614818
1973 614661
zi@@ 613786
ré@@ 613164
dan 613125
1978 612515
Union 612141
Q@@ 612025
ure 611803
ess 611611
sur@@ 611117
1968 611010
ная 610657
King 610584
etwa 610339
Europe 610324
Mc@@ 610076
Division 609889
fin 609525
California 609066
international 608517
gen 607795
Michael 607691
els 607554
Film 607420
ev@@ 606357
ном 605818
же 604981
Santa 604928
style 604880
下 604719
stand 604607
gu@@ 604260
ん 603778
partir 603767
great 603662
की 603390
Peter 603238
half 602774
ский 602482
fine 602089
period 601952
nom 601670
これ 601598
An 600036
ского 599665
Royal 599503
ende 599209
FC 599129
化 599113
ages 599054
wordt 598670
bra@@ 598656
keep 597867
working 597861
level 597852
tr@@ 597594
Am@@ 597468
least 597130
Com@@ 597080
ка@@ 596794
ach@@ 596504
points 596306
för@@ 596254
title 596216
ich 596160
white 595736
だ 595677
story 595426
fre@@ 594958
性 594955
mind 594918
ches 594738
ative 594490
live 593506
done 593422
Or@@ 593077
ps 592753
India 592624
written 592101
ко@@ 591482
produced 591249
ys 591177
role 590601
ically 590487
East 589306
stra@@ 589196
al-@@ 587646
reached 587410
drei 587113
rock 586962
ement 586875
Mo@@ 586673
arms 586617
1977 586605
students 586081
office 586064
auf@@ 585820
wieder 585193
F 584022
次 583991
business 583961
joined 583269
Street 583170
appeared 583100
nog 583048
mis@@ 582895
tes 582870
1971 582680
О@@ 582346
Ro@@ 581086
Grand 580449
ell@@ 580124
me@@ 579958
ot 579465
can@@ 579154
works 578399
ur 578317
т@@ 578294
ell 577480
ae 577322
أن 577101
various 576881
words 576566
low 576408
С@@ 575774
res@@ 575729
essere 575461
living 575374
première 574707
These 573312
election 572708
social 572126
fer@@ 572103
1969 571948
young 571759
wife 571360
Gu@@ 571232
ski 570845
ities 570825
fire 570516
tri@@ 570493
partie 570321
Se@@ 569913
player 569563
aire 569203
Bu@@ 569091
win 568874
Qu@@ 568627
Terrängen 568558
created 568453
plan 568280
tive 567881
north 567555
coming 567443
ava 567405
hu@@ 566973
500 566731
線 566071
community 565884
v 565884
ное 565254
ette 565021
mu@@ 564517
会 564326
party 563666
м 563540
real 563440
quando 563438
Maria 563410
при@@ 563302
ness 563259
High 563233
niet 562510
80 562167
к@@ 562082
G 562032
pu@@ 561920
either 561570
ни@@ 561565
ism 560993
full 560840
1967 560675
1@@ 560562
li 560390
soon 560341
Association 559781
wi@@ 559675
announced 559470
idea 559110
ist@@ 558313
ской 558263
vez 557937
pela 557773
せ 557755
Li@@ 556861
nome 556791
hair 556564
China 556557
位 556380
west 556129
前 555655
round 555260
ti 555233
short 555163
dit 555126
то 554616
À 554308
為@@ 553856
после 553785
а@@ 553743
ful 553455
commune 553423
ai@@ 552828
及 552724
1950 552179
Saint-@@ 552089
1939 551846
although 551622
fe@@ 551565
в@@ 551276
followed 551242
Berlin 550966
1941 550867
über@@ 550385
ok@@ 550288
Sal@@ 549915
februari 549473
south 549467
Island 549407
1940 549038
seinem 548976
taking 548827
dia 548006
stop 547649
dy 547022
Art 546912
vor@@ 546862
wrote 546739
는 546460
由 545950
ground 545601
aba 545598
ay 545191
popular 545158
Lu@@ 544684
video 544565
-S@@ 544554
1964 544446
ре@@ 544247
someone 544093
kh@@ 544008
region 543953
ba 543871
ver 543721
development 542975
lors 542746
ones 542294
bor@@ 542165
Al 542159
Bi@@ 542011
sol@@ 541898
viene 541817
né 541670
sul 541580
о@@ 541214
un' 541164
Von 541050
European 540955
mouth 540732
山 540473
race 539918
На 539593
Company 539578
liegt 539218
heard 538906
aria 538892
U 538879
rest 538580
ciudad 538535
ben 538412
sal@@ 538113
Tra@@ 537694
wo 537664
ти@@ 537437
chi 536850
ang@@ 536652
1943 536313
formed 536026
Vor@@ 535874
hit 535874
Washington 535637
ments 535261
1965 534738
pol@@ 534571
tre@@ 534487
vier 534381
huvudsak 534013
seinen 533121
ern 533007
brother 532988
bar 532691
puis 532613
mehr 532566
ov@@ 532083
change 532056
gar@@ 531477
considered 531160
toward 530343
pe 530146
All 529926
9@@ 529925
tả 529623
pelo 529492
Po@@ 529093
church 529041
re-@@ 528919
yes 528607
principal 528466
sent 528369
fall 528216
and@@ 527853
construction 527590
loro 527474
1966 527202
free 527050
tour 526988
lin@@ 526911
später 526663
diese 526378
Col@@ 526327
był 526070
ology 526015
kann 525972
со@@ 525865
program 525506
USA 525417
maybe 525413
heart 525230
described 524903
ä@@ 524326
juni 524137
trying 523099
similar 522930
1. 522643
ass@@ 522528
mars 522332
bit 522319
Ex@@ 522066
date 521906
Church 521835
1942 521736
ste@@ 521330
ente 521281
também 521139
ring 521123
force 521099
past 520934
ea 520906
central 520329
From 520326
ats 520282
sw@@ 519654
director 519553
further 519548
Party 519344
co-@@ 519334
45 519206
Bei 518881
ía 518871
N 518173
Kar@@ 517482
Un@@ 517420
عام 517252
andere 516077
political 516020
но@@ 515667
Award 515441
Music 515093
Loài 514619
playing 514553
start 514359
ko 514164
вы@@ 513872
mas 513730
用 513571
années 513505
gh@@ 513048
table 513028
Records 512877
nell' 512743
Army 512547
yet 512164
ste 512153
ill 512140
founded 511919
ost@@ 511892
tro@@ 511703
For@@ 511387
70 511318
khoa 511289
Hij 510704
mel@@ 509578
ма@@ 509495
Central 508353
ora 508175
azione 508132
ga 508015
1962 507846
peut 507804
type 507513
mann 507156
でき 507156
land@@ 506885
feet 506540
و@@ 506049
ford 505803
human 505775
三 505630
military 505265
ff@@ 505191
bro@@ 505126
ster 505108
ri 505091
Richard 505089
lot 504942
maar 504531
possible 504233
1963 504231
fo@@ 504131
vào 504089
P 503657
Air 503253
leave 503003
kind 502901
beim 502852
tried 502209
35 501986
road 501899
tre 501882
90 501221
ala 501094
deze 500944
television 500925
radio 500637
By 500484
ju@@ 500401
dan@@ 500236
east 500015
bien 499977
aron 499774
ang 499304
outside 498898
至 498763
int@@ 498421
한 498010
osa 497308
Europa 497303
ón 497122
mal@@ 497074
और 497040
trois 496996
Henry 496927
finished 496770
la@@ 496756
Louis 496396
Council 496022
everything 495990
те 495796
instead 495044
高 494626
По 494552
services 494487
we@@ 494112
lat 493999
д 493897
iz@@ 493858
finally 493728
capital 493135
minutes 493102
end@@ 492923
ah@@ 492900
dar@@ 492591
information 492573
pped 492021
Mu@@ 491978
cm 491482
世界 491350
ents 491270
ва@@ 491259
sido 491041
1946 490968
President 490919
cal@@ 490827
под 490585
ihre 490534
move 490030
non-@@ 490003
số 489707
Festival 489466
december 489426
daughter 489274
1948 488915
ta@@ 488720
使用 488447
oh 488391
目 488341
Ad@@ 488169
gl@@ 488119
Ende 487927
ska 487656
Joseph 487433
According 487348
их 487279
lead 486897
़ 486819
doing 486722
ven@@ 486538
kam 486343
az@@ 486166
bs 486086
Tri@@ 485547
person 484925
ability 484529
thành 484449
1956 484396
call 484344
Ri@@ 484192
months 483981
gel@@ 483819
men@@ 482871
回 482822
sound 482654
dark 482638
ö@@ 482550
vattendrag 482259
1961 482098
cat@@ 482078
brought 481252
elected 480904
Aus@@ 480724
sig 480724
пере@@ 480179
girl 479467
ster@@ 479448
jako 479198
depuis 478789
ung@@ 478780
का 478594
B. 478379
ry@@ 478129
). 478023
José 477990
guerra 477822
より 477820
studio 477690
ura 477578
Ne@@ 477394
1958 477362
contra 477320
р 477159
debut 477048
são 476750
ines 476714
recorded 476340
学校 476259
Bal@@ 476162
ei@@ 476109
fi@@ 475904
Hall 475609
closed 475557
erste 475314
konnte 475306
ene 475289
list 475143
到 475066
sing 474822
id@@ 474417
ik@@ 473865
jusqu' 473770
ban@@ 473711
से 473591
Ober@@ 473333
г. 473287
finale 472768
ony 472736
ito 472624
内 472543
needed 472077
sten 471997
Pol@@ 471971
ская 471929
ena 471859
ay@@ 471808
ro 471590
appointed 471504
生 471294
ble 471137
1920 470952
ل@@ 470922
ihm 470605
са 470529
ро@@ 470186
д@@ 470086
class 469494
kon@@ 469444
nos 469382
65 469298
ol 469119
Pi@@ 468983
zu@@ 468958
release 468427
sn@@ 467843
tiên 467703
-B@@ 467668
stood 467576
Mit 467367
common 466894
ee 466849
“ 466688
Mer@@ 466611
floor 466573
التي 466520
1938 466432
says 466362
dove 466359
sa@@ 466163
ies 466108
above 466047
far@@ 465973
있다 465931
ty@@ 465673
fact 465517
event 465377
都 465247
heute 465240
1954 465129
gran 465009
ched 464967
1959 464924
With 464908
pulled 464588
Su 464563
于 464360
” 464339
ves 464249
1930 463864
bur@@ 463705
developed 463670
signed 463610
latach 463438
lie 463333
Mai 463018
ри@@ 462772
中国 462567
design 462531
present 462526
go@@ 462264
cap@@ 462178
contre 462074
plusieurs 461733
blood 460876
court 460611
1,@@ 460449
У@@ 460084
号 459928
Gra@@ 459745
media 459577
groupe 459258
一@@ 459025
killed 458724
lan@@ 458359
turn 458273
二 458273
probably 458043
language 457974
ep@@ 457234
return 457202
venne 457154
ris@@ 456945
data 456845
Christian 456689
decided 456562
primera 456558
en-@@ 456307
間 456266
Mat@@ 456243
primo 456163
upon 455953
† 455870
arm 455806
wood 455617
स 455605
ong 455475
zich 455362
ici 455175
ters 455027
stone 454795
seemed 454765
center 454571
professional 454553
1947 454407
care 453795
había 453682
области 453551
big 453520
park 453428
research 453418
та@@ 453381
ania 453299
oni 452931
かっ 452718
её 452684
cy 452544
.. 452398
Gemeinde 452295
新 452249
super@@ 452179
Japan 452176
très 452135
Championship 452082
ns 451778
Center 451612
1957 451558
H 451466
駅 451163
1952 451002
K 450748
Tour 450647
gro@@ 450179
Kon@@ 449800
ра@@ 449762
ela 449552
лет 449539
作 449236
september 449226
eran 449200
Cal@@ 448941
police 448924
ker@@ 448583
мо@@ 448481
yn@@ 448347
word 447912
tempo 447835
forces 447352
軍 446991
ere 446985
에서 446974
000 446930
ari@@ 446917
ш@@ 446834
ную 446557
Martin 446240
estado 446208
ut 446190
# 446178
areas 446163
usually 446124
anti@@ 446038
onder 446017
где 445905
ged 445890
chi@@ 445851
то@@ 445803
że 445624
gia 445523
Cette 445423
之 445063
ck@@ 445050
مع 445012
lat@@ 444862
fied 444829
tháng 444767
Ge@@ 444523
Francisco 444423
changed 444133
average 444056
rather 443995
plaats 443967
addition 443923
戦 443819
else 443500
Bor@@ 443471
ском 443378
haben 443284
Si@@ 442790
después 442683
result 442460
32 442264
example 441950
teams 441239
1949 440900
ма 440887
Ein@@ 440628
grupo 440531
1936 440280
ert 440019
dann 439863
project 439826
Pre@@ 439674
pal@@ 439618
running 439543
да@@ 439166
Ac@@ 439094
chen 439008
fueron 439002
questo 438629
mean 438622
j 438506
dall' 438282
м@@ 438218
1918 437825
tiene 437660
от@@ 437415
avant 437088
長 437074
bre@@ 436951
1955 436592
ди@@ 436552
remained 436512
Ser@@ 436418
många 436262
町 436174
Australian 436159
added 436047
mi 435768
Museum 435729
本 435621
Han 435320
wide 435212
ми@@ 435147
人口 435098
п@@ 435050
ischer 434985
ло@@ 434649
Tor@@ 434158
sistema 434106
Teil 434094
ha@@ 434069
bel@@ 434046
си@@ 433990
Group 433895
区 433878
As@@ 433523
ait 433301
anderen 433117
cher 433022
pa@@ 432893
Bel@@ 432748
liche 432582
öster 432322
While 432108
де@@ 432050
Dans 431987
heeft 431170
который 431137
bereits 431109
Road 431058
ete 430853
км 430719
道 430626
vật 430480
sea 430476
agosto 430441
Indian 430347
да 430006
available 429923
ago 429674
term 429488
lugar 429466
Ko@@ 429284
ying 429190
学 429051
0@@ 428608
Van 428180
sam@@ 428012
không 427999
ви@@ 427913
Society 427556
hol@@ 427456
cuando 427444
ian 427376
friend 427252
Gar@@ 426717
pan@@ 426659
the@@ 425829
1953 425361
primer 425316
board 425311
action 425257
anno 425206
ill@@ 425032
分 424890
nei 424797
Januar 424615
й 424505
nelle 424452
tur@@ 424208
A. 423855
ā@@ 423852
route 423319
två 423282
März 423136
Si 423090
عن 422775
shot 422743
week 422700
seat 422519
kl@@ 422506
法 422472
từ 422348
1933 421760
б@@ 421238
Lac 421231
certain 420852
parents 420433
Go@@ 420404
president 420404
Kanada 420242
större 420235
هو 420078
herself 420076
tar@@ 419861
тов 419679
not@@ 419352
d-@@ 419329
kar@@ 419201
hand@@ 419132
pod 419061
И@@ 419003
città 418936
events 418858
åt 418757
films 418279
quickly 418279
lichen 418218
bil@@ 418203
Estados 418189
ihrer 418148
Oktober 417897
Institute 417698
thực 417629
ego 417473
1937 417435
sel@@ 417380
bal@@ 417362
300 417306
لل@@ 417037
stage 417028
車 416918
Bur@@ 416871
mes 416457
forward 416223
fois 416221
dort 416169
division 416080
eu@@ 415908
jego 415859
space 415853
track 415851
poi 415819
français 415657
série 415420
tw@@ 415263
это 414916
Juan 414822
После 414701
hold 414504
ck 414196
Angeles 414008
sor@@ 413942
Italia 413555
money 413548
Germany 413524
población 413394
álbum 413219
wall 413214
getting 413070
You 412912
wouldn 412822
ges 412812
ati@@ 412809
hom@@ 412722
league 412678
tout 412596
natural 412266
private 411811
ching 411659
ir 411205
placed 411109
того 410919
J. 410916
mayor 410885
yl@@ 410556
ihn 410462
г@@ 410156
IV 409713
pa 409507
sold 409291
Texas 409002
Ger@@ 408948
current 408593
со 408499
smile 408427
reg@@ 408153
eventually 408075
thuộc 408060
cer@@ 408031
những 407957
eight 407946
1919 407721
tym 407717
cada 407678
sat 407601
Jean 407581
otros 407341
special 407302
myself 406872
na@@ 406787
alone 406766
ew@@ 406231
為 406224
mismo 406178
cas@@ 406166
currently 406086
centre 406060
語 405991
omgivningarna 405804
deep 405774
san@@ 405261
Mac@@ 405231
лся 405023
1951 404868
ve@@ 404673
dead 404647
sin@@ 404642
talk 404523
hadn 404431
try 404394
Ein 404156
on-@@ 404109
son@@ 404051
First 403925
أو 403909
ously 403891
casa 403877
ase 403763
mentre 403710
växer 403456
Vi@@ 403039
sion 402943
leading 402928
과 402531
leg@@ 402463
process 402343
fast 402043
cual 401812
gone 401741
air@@ 401427
Hu@@ 401347
数 401282
features 401193
Smith 401151
Some 401045
リ@@ 400309
Unidos 400246
Creek 400043
designed 399975
Juni 399968
musical 399893
Val@@ 399832
ы 399791
UK 399778
Chicago 399727
Ru@@ 399503
lips 399477
Mi@@ 399474
Ter@@ 399276
Black 399168
Ma@@ 399162
friends 399042
tem 399027
fer 399001
ken@@ 398956
ff 398822
中@@ 398697
tres 398507
ло 398491
但 398462
ま 398457
ory 398401
child 398329
ał 398316
seven 398251
strong 398200
год 397939
и@@ 397931
sz@@ 397611
я@@ 397539
vo@@ 397517
Chi@@ 397499
ю 397187
Diese 396912
стал 396533
vida 396465
pr@@ 396427
sky 396264
während 395868
importante 395799
education 395733
ensis 395687
Juli 395669
avait 395662
hours 395416
mine 395373
inc@@ 395189
ono 395105
endo 395060
zona 394802
Ce 394626
kept 394406
đến 394405
Western 394226
sometimes 394214
pat@@ 394039
ских 393826
post@@ 393776
St 393636
400 393510
Son 393488
t-@@ 393433
avoir 393374
bad 393294
gre@@ 393293
section 393000
White 392875
performance 392543
modern 392398
var@@ 392326
機 392140
stri@@ 391955
ador 391879
ber 391749
character 391747
val@@ 391682
eerste 391659
training 391528
involved 391357
Durante 391320
passed 391075
mort 391003
1935 390883
川 390672
ação 390568
1934 390418
Cerro 390346
ological 389779
более 389762
ле@@ 389715
이@@ 389710
official 389691
Z 389690
C' 389486
beiden 389229
whole 389188
phone 389115
glesbefolkat 388662
Academy 388647
char@@ 388456
key 388440
walked 388426
ars 388401
eh@@ 388223
today 388129
songs 388117
ア@@ 387949
attack 387603
emb@@ 387207
erhielt 387188
Red 387047
其 386970
towards 386756
gab 386572
í@@ 386440
Bay 386139
человек 386134
lies 385973
ward 385911
á@@ 385558
研究 385517
väster 385103
ず 384799
throughout 384744
現在 384715
jo@@ 384644
année 384552
owe 384415
dri@@ 384293
一个 384105
0.@@ 383977
können 383928
王 383810
Lo@@ 383580
largest 383501
ба@@ 383480
時代 383452
gibt 383316
dessen 383308
believe 383130
元 383055
suite 382986
direction 382979
nordväst 382863
ner@@ 382680
encuentra 382481
tor 382419
Dezember 382393
khi 382103
Roman 382082
todos 382081
boy 382078
lich 381889
Kirche 381704
ei 381634
loc@@ 381594
Ка@@ 381396
1914 381206
performed 381070
study 380968
Land@@ 380959
sans 380947
gr@@ 380916
longer 380776
ron 380738
ку 380649
To 380582
br@@ 380537
especially 380484
放送 380484
mit@@ 380079
don@@ 379843
Football 379728
является 379659
1929 379557
puede 379478
Э@@ 378976
ны 378929
лись 378667
io 378214
hear 378150
так 378019
가 377966
使 377788
ali@@ 377561
zone 377510
ye 377398
nej 377348
को 377179
Hol@@ 377010
rate 376994
対 376864
enden 376762
tại 376762
São 376720
än 376531
actually 376348
Pal@@ 376259
bach 376206
todo 376055
stata 375964
Court 375943
november 375831
ario 375739
ке 375690
ihr 375533
ными 375463
fino 375363
Ku@@ 375356
diesem 375027
1928 374922
России 374873
Mary 374702
college 374527
Seit 374509
coach 374370
村 374225
وال@@ 374081
monde 373951
sulla 373877
kuperad 373714
Nacional 373696
ric@@ 373355
originally 373341
zen 373247
ret@@ 373135
amento 372950
samhälle 372939
Deutschland 372880
mas@@ 372529
size 372473
Sol@@ 372461
hal@@ 372431
books 372232
er-@@ 372224
度 372115
onde 371926
refer 371668
parts 371278
morning 371234
Ros@@ 371214
Sa@@ 371175
Ti@@ 371116
nych 371114
San@@ 370567
作品 370530
最 370529
1917 370343
Team 370312
quale 370255
Can@@ 370147
eta 370077
П@@ 369894
act 369829
Mas@@ 369775
norr 369611
completed 369578
tanto 369574
temps 369549
33 369478
uses 369475
notamment 369201
år 368769
ques 368758
Wal@@ 368752
Hill 368691
mar 368684
olarak 368562
range 368542
ci 368413
cra@@ 368261
banda 368213
reported 368165
spent 368154
oktober 367777
로 367722
Although 367620
dance 367476
1932 367432
й@@ 367376
Närmaste 367114
型 367047
л@@ 367046
те@@ 366980
dai 366800
Man 366776
ko@@ 366711
ف@@ 366337
Rio 366329
án 365919
muy 365860
je@@ 365830
ero 365829
dad 365352
ス@@ 365055
ла@@ 364915
por@@ 364781
active 364747
lived 364706
於 364601
sta 364372
volta 364315
in-@@ 364259
nära 364174
leaving 364131
Best 364123
wh@@ 363993
food 363992
enia 363988
Department 363944
bat@@ 363812
material 363759
ori 363694
famille 363436
á 363416
deren 363354
cause 363353
vol@@ 363249
Pan@@ 363230
го@@ 363133
ba@@ 363005
directed 363000
western 362893
ль@@ 362848
1.@@ 362750
Saison 362706
wa 362660
bas@@ 362443
ef@@ 362407
fa 362354
Tu@@ 362323
saison 362195
ва 361999
sei 361863
كان 361776
trans@@ 361726
CD 361710
includes 361587
与 361495
ков 361436
entire 361306
shi@@ 361157
1924 360902
país 360851
lands 360824
forced 360734
bu 360624
田 360609
doesn 360512
c' 360421
habitantes 360410
Sar@@ 360262
だっ 360118
personal 360084
Au 360067
shows 359945
К@@ 359945
Mexico 359877
2.@@ 359844
小 359738
Te@@ 359582
それ 359552
она 359463
Great 359459
pra@@ 359457
ech@@ 359352
id 359309
onto 359290
groups 359268
2,@@ 358822
fight 358681
Neu@@ 358608
じ 358475
vi 358127
ganska 358097
са@@ 357996
nas 357883
att@@ 357792
р@@ 357751
Ho@@ 357577
okay 357495
ovanligt 357459
So@@ 357336
Cu@@ 357252
dla 357212
river 357174
mai 357029
players 357019
eren 356569
アメリカ 356499
ently 356396
mark 356346
入 355956
nodded 355739
36 355594
Min@@ 355512
stopped 355346
happened 355199
meer 355027
ended 354769
episode 354517
marzo 354336
featured 354217
В@@ 354167
Eine 353958
mission 353839
means 353780
schools 353708
cover 353679
stay 353665
هي 353642
attention 353572
namngivna 353499
Her 353347
Unter@@ 353303
ron@@ 352671
ished 352667
raised 352654
cut 352542
ok 352520
sister 352345
Ма@@ 352220
pays 352184
structure 351985
Д@@ 351975
Since 351945
of@@ 351930
Sp@@ 351767
Mil@@ 351660
小@@ 351650
question 351545
cia 351402
itself 351359
Jahrhundert 351248
Ben@@ 351089
По@@ 351041
ais 351037
vie 350829
ov 350663
older 350638
leader 350494
Char@@ 350468
ngày 350411
0,@@ 350340
() 350313
ما 350303
е@@ 350185
Canadian 349936
War@@ 349900
Universität 349797
式 349737
Act 349681
fell 349430
iv@@ 349397
1931 349392
раз@@ 349338
カ@@ 349280
Gi@@ 349247
contro 349154
équipe 349080
ades 349005
listed 348976
Africa 348727
junto 348689
ships 348646
stein 348519
future 348423
ler@@ 348044
eau 347889
ль 347814
hier 347614
事 347403
ements 347272
Inter@@ 347139
Radio 347011
Sam@@ 346968
fil@@ 346941
leurs 346838
port 346756
centrala 346723
wor@@ 346493
below 346473
jaar 346419
Band 346370
Lan@@ 346254
ские 346245
haar 346213
1922 346183
ello 346180
clear 346133
replaced 346029
Antonio 345993
West@@ 345948
nordost 345942
province 345848
saying 345779
allowed 345756
figure 345713
pri@@ 345668
caso 345641
бо@@ 345482
provided 345469
source 345292
1927 345291
deutschen 345195
1921 345177
así 345160
га@@ 344901
writing 344861
ick 344593
Mitglied 344569
Minister 344557
Kal@@ 344470
이다 344436
centro 344345
Con 344282
ku 344265
ores 344260
model 344241
64 344068
Mark 344057
standing 344023
M. 343863
Kor@@ 343826
를 343804
可能 343282
Dr. 343262
zo 343166
1926 343151
Platz 342986
kt 342946
Bra@@ 342787
34 342392
ality 342365
beginning 342217
row 342169
suoi 341929
Tar@@ 341835
So 341832
成 341829
ned 341488
1925 341484
Po 341460
으로 341457
breath 341411
Chinese 341332
Après 341311
female 341076
城 341039
faire 340883
nor@@ 340657
ke@@ 340631
także 340479
whose 340468
사@@ 340429
lines 340419
~ 340288
D. 339988
ère 339845
cro@@ 339775
previous 339415
lar@@ 339302
đó 339237
rac@@ 339145
bus 339125
gest@@ 339109
ue 338964
ways 338879
Auch 338377
形 338257
familia 338256
Da 338249
г 338085
х@@ 338077
東京 338009
tipo 337992
ros 337989
lig@@ 337606
ann@@ 337602
во@@ 337586
mag@@ 337501
vis@@ 337373
Kh@@ 337323
É@@ 337068
und@@ 336992
Os 336976
uso 336972
deal 336951
gs 336880
Cer@@ 336564
Bau@@ 336534
Bre@@ 336532
altri 336505
под@@ 336496
ly@@ 336430
ort 336406
Love 336389
ras 336300
Por 336270
島 336225
hel@@ 336140
stated 335997
eten 335925
stesso 335904
winning 335840
families 335815
持 335600
44 335532
ther@@ 335388
только 335362
ben@@ 335297
з@@ 335220
wer@@ 335214
summer 335161
owy 334887
È 334725
fully 334724
ра 334535
Me@@ 334477
Its 334357
ined 334324
एक 334267
局 334245
công 334229
couple 334173
fu@@ 334104
moving 334044
1923 334004
ola 333552
1912 333425
ji 333115
elles 332953
西@@ 332944
па@@ 332921
Т@@ 332918
autre 332881
states 332876
novembre 332857
vari@@ 332722
anie 332622
burg 332476
75 332303
ney 332258
tel@@ 332190
га 332178
thể 332080
grand 331881
pil@@ 331849
ama 331835
ham 331778
се@@ 331720
Madrid 331719
ili@@ 331641
related 331530
ur. 331503
opening 331412
allow 331209
郡 331163
matter 331145
Im@@ 331007
20@@ 330944
sil@@ 330885
ку@@ 330861
earlier 330731
q@@ 330544
Carlos 330334
ć 330164
ông 330122
Russian 330112
得 330108
fingers 330099
ft 329766
metal 329441
nearly 329425
bul@@ 329352
countries 329350
Arts 329347
Alexander 329201
Fue 329104
Tur@@ 328999
awarded 328924
Gal@@ 328787
Force 328774
degree 328728
först 328613
werk 328553
ет 328460
skin 328359
Februar 328274
sy@@ 328061
god 328053
ó@@ 327843
inte 327731
Dis@@ 327696
nu@@ 327684
color 327679
ру@@ 327593
2-@@ 327575
Este 327439
38 327351
damit 327140
grandes 327091
inwoners 327019
unter@@ 326978
zy 326881
Ban@@ 326861
sehr 326779
zurück 326747
sis 326709
owned 326624
Japanese 326507
1910 326479
covered 326346
rer 326331
my@@ 326226
surface 326165
kill 325948
oper@@ 325902
新@@ 325878
về 325827
magazine 325623
segundo 325613
하는 325598
april 325513
dello 325478
modo 325427
island 325298
ud@@ 325283
interest 325251
Ju@@ 325110
market 324977
dân 324972
力 324818
red@@ 324816
ash@@ 324718
hanno 324710
Kan@@ 324666
nar@@ 324652
région 324521
chest 324453
ori@@ 324357
anyone 324316
söder 324082
bridge 323916
gener@@ 323753
everyone 323713
forme 323448
inf@@ 323300
To@@ 323014
Gro@@ 322964
contract 322932
entered 322921
マ@@ 322870
Des@@ 322737
sk 322707
物 322610
true 322521
particular 322487
smiled 322401
aj@@ 322370
aircraft 322304
состав 322258
ard@@ 322212
makes 322196
regular 322180
Nor@@ 322057
flo@@ 322052
foram 321880
để 321871
1-@@ 321798
Sk@@ 321743
ي@@ 321725
speci@@ 321649
sar@@ 321624
kan@@ 321582
introduced 321570
owa 321458
siglo 321309
erano 321197
by@@ 321143
場合 321124
van@@ 321070
Lee 321056
nego 320981
titre 320623
owych 320537
Edward 320453
Б@@ 320391
huvudsakligen 320390
ask 320355
sense 320274
blue 320252
complete 320242
Auf 320191
secondo 319971
города 319700
Mag@@ 319616
бе@@ 319578
aceae 319494
ф@@ 319323
provide 319222
oso 319175
I. 319077
success 319062
issue 318978
Karl 318937
feeling 318907
ites 318653
liga 318618
万 318611
rel@@ 318585
Haupt@@ 318547
elli 318393
ani@@ 318333
art@@ 318247
ots 318190
ラ@@ 318175
encore 318112
呼 317796
view 317685
seus 317620
高@@ 317585
ls 317518
которые 317365
bank 317350
Op 317335
hell 317274
ク@@ 317241
job 317174
ze@@ 317134
ex 317125
competition 317045
quân 316939
giving 316919
esa 316802
seguito 316773
bet@@ 316644
collection 316566
opera 316555
ме@@ 316473
La@@ 316423
Virginia 316419
temporada 316409
cam@@ 316393
zunächst 316218
enne 316178
net 316073
Ak@@ 316036
eng@@ 315994
bị 315763
eri 315437
cast 315419
At@@ 315378
Mel@@ 315181
했다 315093
Del@@ 315071
stagione 314997
buildings 314750
movement 314535
بين 314503
ria 314288
gas 314168
origine 314084
zusammen 313944
受け 313850
Toppen 313811
ug@@ 313754
ж@@ 313754
iska 313625
Für 313451
系 313346
weeks 313328
culture 313273
heavy 313179
fourth 313153
S. 313131
Roma 313074
Ni@@ 312924
ists 312744
mundo 312695
successful 312684
cours 312579
aveva 312514
しかし 312372
見 312361
meet 312322
gold 312259
như 312140
stad 312121
följande 312104
andra 312055
han@@ 312043
48 311782
政府 311719
cel@@ 311526
keine 311509
alen 311508
dar 311482
代表 311460
后 311421
hor@@ 311263
中心 311084
存在 311075
西 311060
gri@@ 310897
· 310878
Ag@@ 310858
reason 310850
devient 310783
deel 310627
Big 310419
equipo 310379
ك@@ 310261
rights 310257
Y 310247
até 310197
ihren 309982
ве@@ 309982
cas 309960
Kūh-e 309953
są 309941
illa 309835
A-@@ 309802
Cap@@ 309775
momento 309635
Argentina 309455
Friedrich 309383
同 309354
nym 309345
an-@@ 309165
де 309124
holding 309119
ens@@ 309107
shook 309046
н@@ 309028
य 308836
mal 308804
院 308502
uni@@ 308404
distance 308366
1913 308299
lower 308054
1900 308029
ни 307987
padre 307842
vin@@ 307792
inger 307760
form@@ 307562
takes 307488
科 307462
hoa 307461
Brasil 307427
thus 307331
meeting 307264
mô 307114
인 307024
與@@ 306896
ac 306725
standard 306661
comune 306578
befindet 306576
ey@@ 306466
army 306293
ky 306215
lieu 306121
Namen 306028
Open 305980
00 305861
代 305823
systems 305719
presidente 305544
nord 305474
amb@@ 305401
3-@@ 305386
número 305370
cie 305350
Navy 305242
lang 305213
star@@ 305050
blev 304895
professor 304846
Rock 304824
husband 304796
み 304784
ational 304744
場 304463
лась 304352
Ph@@ 304344
Une 304344
enie 304310
provincia 304130
tan@@ 303995
ce@@ 303961
rat 303865
tant 303828
length 303802
ole 303700
ться 303676
Serie 303613
street 303525
42 303337
Ireland 303312
kom@@ 303242
Don 303229
star 303129
mindre 303097
lin 303067
1915 302983
består 302974
guerre 302948
pes 302871
Land 302781
Au@@ 302685
Ottawa 302566
sự 302565
Two 302556
runs 302414
시@@ 302406
Gen@@ 302093
Tro@@ 302015
37 301943
Sir 301807
atus 301795
hade 301691
sort 301654
claimed 301650
Other 301597
uit@@ 301534
tous 301510
ton@@ 301466
cidade 301454
rat@@ 301452
ت@@ 301432
ское 301330
civil 301266
twee 301252
ров 301143
weitere 301132
allem 300963
Liga 300939
수 300904
tiempo 300827
walk 300628
Spanish 300422
gan@@ 300356
Frank 300286
Est@@ 300192
causa 300042
初 299985
ath@@ 299875
Ort 299831
trên 299642
ready 299618
scored 299522
Awards 299399
gemeente 299390
Fer@@ 299382
meant 299368
le-@@ 299353
Region 299161
goal 299133
ie@@ 299100
begann 299097
attended 299007
Florida 298972
選手 298768
comes 298505
yer 298445
пи@@ 298432
ł@@ 298107
ki@@ 298105
ish@@ 298025
Em@@ 297947
sud 297931
Italian 297782
situation 297721
anti 297695
pet@@ 297619
Day 297541
55 297540
ismo 297523
Bl@@ 297511
Jack 297348
formation 297287
nia 297240
войны 297180
Pet@@ 297130
whom 297031
sydväst 296909
этого 296766
enti 296686
mes@@ 296626
problem 296562
ators 296446
nen 296426
हैं 296372
ards 296338
wo@@ 296241
port@@ 296198
gun 296175
Bro@@ 296010
tom@@ 295892
1911 295877
Daniel 295821
cha 295755
molto 295730
Empire 295718
4-@@ 295688
ту 295652
ple@@ 295650
defeated 295528
battle 295374
Ur@@ 295307
СССР 295249
ren 294906
任 294778
organization 294774
ays 294601
cerca 294562
embargo 294484
pod@@ 294414
caught 294362
Ha@@ 294221
pic@@ 294191
quite 294164
área 294144
wal@@ 294038
ow 294010
iti@@ 293937
olan 293881
수@@ 293867
census 293787
面 293628
steht 293611
dor@@ 293589
chính 293574
continue 293552
オ@@ 293509
nature 293477
général 293401
soit 293387
지@@ 293374
themselves 293321
tal 293259
Do@@ 293237
municipio 293177
rot@@ 293126
green 293047
tal@@ 292997
approximately 292951
nouveau 292813
campaign 292774
España 292726
Ко@@ 292721
ern@@ 292691
k-@@ 292555
Sohn 292424
pp@@ 292418
zes 292418
ming 292417
tion@@ 292373
エ@@ 292229
本@@ 292203
ized 292095
forms 291947
även 291904
Saint 291901
하고 291836
Far@@ 291707
Republic 291646
ball 291627
Wil@@ 291512
этом 291504
Brown 291356
denen 291272
sun@@ 291189
J 291153
они 291125
tie 290894
syfta 290840
Lord 290741
реки 290720
bo 290698
sydost 290672
dam@@ 290624
aries 290566
tic 290488
iti 290427
aires 290426
Ram@@ 290423
fal@@ 290160
pendant 290151
Pl@@ 290143
Hans 290085
status 289997
Iran 289905
simple 289761
約 289752
1916 289669
А. 289666
12@@ 289634
sau 289578
novel 289472
len@@ 289468
Johann 289253
不@@ 289241
back@@ 289100
stor@@ 288944
morte 288859
手 288738
units 288637
dist@@ 288558
ła 288553
Columbia 288527
African 288405
slowly 288358
two-@@ 288356
М@@ 288289
世 288277
news 288248
bekannt 288190
就 288180
thinking 288081
jak 288027
sempre 287994
Cre@@ 287980
shoulder 287902
pain 287886
ast 287791
hem 287727
Professor 287594
platt 287586
yeah 287541
sum@@ 287535
immer 287431
hi 287411
managed 287390
lar 287359
hay 287236
read 287148
Kingdom 287117
bzw. 287055
Jones 287050
活動 286944
fol@@ 286894
studied 286816
regionen 286736
offered 286559
rit@@ 286498
Са@@ 286470
peu 286398
Ol@@ 286348
期 286257
mo 286122
appearance 286011
ges@@ 285989
helped 285858
energy 285797
poco 285795
master 285789
Committee 285714
Bon@@ 285675
чи@@ 285670
Most 285633
kor@@ 285629
circa 285557
하였다 285526
Tom 285374
ends 285127
Chile 285075
skiego 285004
questa 284912
plant 284855
ment@@ 284742
サ@@ 284729
dy@@ 284696
pass 284640
immediately 284592
pel@@ 284584
sou@@ 284559
台 284410
significant 284257
Pierre 284234
middle 283984
test 283942
plays 283896
ym 283803
Station 283608
ebenfalls 283579
quatre 283569
furono 283561
southern 283555
northern 283544
arse 283508
ind@@ 283484
彼 283479
nahm 283325
Fre@@ 283296
zi 283161
nik 283155
tem@@ 283038
На@@ 283009
pas@@ 282985
書 282931
Sy@@ 282901
train 282817
nu 282727
location 282719
省 282689
ering 282578
ей 282567
weg 282544
曲 282341
principale 282298
上@@ 282207
mondiale 282028
previously 281992
statt 281992
け 281968
eye 281915
Carl 281898
periodo 281847
neck 281846
å@@ 281790
ku@@ 281688
places 281577
ロ@@ 281556
sjö 281542
ром 281485
Pat@@ 281389
serve 281368
5-@@ 281364
run@@ 281362
aban 281194
mostly 281182
š@@ 281031
三@@ 280970
wa@@ 280867
Bank 280850
q 280806
方 280763
len 280726
glass 280679
county 280651
金 280632
który 280482
required 280361
Wales 280262
sorry 280210
社 280202
би@@ 280174
ским 280158
或 280141
ess@@ 280034
higher 279960
individual 279917
цы 279890
ité 279780
mil@@ 279753
charge 279747
Green 279746
anderem 279629
3,@@ 279445
Fl@@ 279441
Nam 279334
대@@ 279266
He@@ 279220
stu@@ 279214
owej 279203
バ@@ 279191
writer 279115
Under 279106
noted 279025
adi@@ 278997
水 278992
tors 278955
知 278950
off@@ 278938
1908 278887
likely 278842
bajo 278831
male 278791
기@@ 278791
post 278656
150 278545
self-@@ 278525
expected 278473
가@@ 278456
completely 278345
hy@@ 278195
française 278188
och@@ 278106
Pennsylvania 278097
obra 278068
Una 278065
loss 278035
Familie 278025
kal@@ 277989
Grande 277966
pping 277946
plan@@ 277915
sede 277853
staff 277752
dro@@ 277738
cit@@ 277701
nic@@ 277695
кой 277649
understand 277648
relationship 277633
début 277599
rag@@ 277579
Dar@@ 277563
gran@@ 277324
spielte 277255
南 277215
mut@@ 277176
Hor@@ 277096
ingly 277013
med@@ 276966
Times 276942
bri@@ 276920
ini@@ 276913
nationale 276888
dre@@ 276873
les@@ 276832
م@@ 276799
eth@@ 276665
minute 276664
according 276621
score 276490
dropped 276466
eur 276444
My 276358
因 276341
chair 276333
wrong 276322
rose 276297
ables 276292
жи@@ 276265
generally 276239
Shi@@ 276234
Is@@ 276158
Г@@ 276140
bol@@ 276068
與 275991
chance 275965
roz@@ 275943
ną 275909
э@@ 275895
体 275884
health 275820
Kom@@ 275769
レ@@ 275551
以下 275492
r. 275462
ised 275330
ч@@ 275251
abril 275237
box 275225
tätbefolkat 275171
ту@@ 275056
Do 275033
Portugal 275033
ition 275001
située 274964
mol@@ 274904
gruppo 274788
同年 274731
ris 274553
ear@@ 274498
month 274482
lub 274449
zer@@ 274209
За@@ 274185
Men@@ 274143
olo 273907
piano 273852
ют 273813
industry 273786
Han@@ 273733
bring 273712
caused 273673
США 273635
立 273550
manager 273476
点 273454
Games 273371
ven 273351
kin 273193
otras 273116
क 273065
är@@ 273055
famous 273033
ved 272920
되었다 272859
Tr@@ 272819
39 272811
ão 272775
donc 272770
ation@@ 272762
practice 272662
student 272606
1000 272536
medi@@ 272494
gal@@ 272369
aged 272274
spar@@ 272258
moins 272221
전@@ 272183
kt@@ 272150
bran@@ 272110
между 272097
hospital 272080
lag 272070
ки@@ 272056
quien 272009
soci@@ 272006
zer 271907
secolo 271710
1905 271635
network 271612
Jo@@ 271531
Valley 271501
represented 271443
ется 271382
Per 271366
wing 271328
Catholic 271320
2. 271297
aient 271270
Met@@ 271187
commercial 271181
ving 271148
selbst 271133
Williams 271110
aren 270990
hur@@ 270961
コ@@ 270345
punto 270266
hall 270146
carried 270143
If 270101
làm 270101
wit@@ 270007
issues 269964
break 269874
property 269830
와 269791
Dopo 269767
Universidad 269767
وت@@ 269755
sport 269711
ej@@ 269686
fort 269580
них 269555
ich@@ 269550
sex 269358
ng@@ 269290
Personen 269177
Bas@@ 269109
fac@@ 269059
chapter 268961
fra@@ 268824
article 268765
guy 268758
ts@@ 268717
plans 268687
railway 268657
Reg@@ 268605
dies 268576
ace 268493
arrived 268491
XIX 268475
che@@ 268288
artist 268237
بعد 268206
anti-@@ 268160
decision 268079
Nord 268046
We 267928
whether 267836
becoming 267781
Ste@@ 267662
suit 267625
hes 267315
Later 267033
nước 266888
Star 266875
hot 266810
су@@ 266794
primary 266724
despite 266712
traditional 266697
sive 266576
cy@@ 266530
1907 266432
ws 266419
believed 266399
Following 266294
Wilhelm 266285
lia 266283
E. 266263
My@@ 266208
efter 266206
Gre@@ 266112
む 265962
Women 265947
de-@@ 265903
dabei 265877
arts 265790
cher@@ 265767
nowiki 265657
window 265570
zo@@ 265522
talking 265489
piece 265281
época 265231
ト@@ 265231
fur@@ 265161
influence 265090
ep 265066
ała 265014
wel@@ 265013
science 265010
legs 264984
enti@@ 264955
vel@@ 264944
income 264924
inv@@ 264919
reach 264758
pun@@ 264757
هذه 264730
DVD 264705
Boston 264693
XX 264634
ohne 264495
studies 264371
Carolina 264329
również 264303
Kol@@ 264213
festival 264203
lam@@ 264191
campo 264188
Über@@ 264175
aver 264050
clubs 264041
ле 264041
straße 263959
Guerra 263958
Bol@@ 263930
mid@@ 263925
Tre@@ 263892
41 263829
independent 263818
Super@@ 263814
idae 263749
Hy@@ 263628
ide@@ 263599
Name 263581
lic@@ 263410
museum 263225
música 263215
氏 263077
東 262967
Mari@@ 262933
cold 262922
gewann 262915
района 262907
47 262767
東@@ 262751
aunque 262682
neuen 262670
thời 262619
годах 262610
personas 262455
Para 262291
gers 262285
siendo 262279
così 262240
ks@@ 262199
watched 262159
remember 262123
spo@@ 262086
Cas@@ 262020
quella 261984
í 261979
Centre 261976
Albert 261962
Me 261955
ont@@ 261941
Wy@@ 261879
pré@@ 261834
pul@@ 261757
obefolkad 261708
Board 261687
シ@@ 261662
eu 261650
Service 261591
tras 261583
eux 261541
पर 261338
except 261315
Gor@@ 261161
Fi@@ 261057
changes 261038
names 261024
х 261013
af 260979
owego 260811
engine 260727
dom@@ 260623
etti 260613
politique 260603
Mah@@ 260553
вой 260522
pon@@ 260483
Real 260461
hour 260461
starting 260453
tarde 260398
長@@ 260385
scene 260326
pop 260267
atic 260185
Israel 260022
Government 260004
ham@@ 259956
États-Unis 259929
52 259890
lives 259843
maj 259822
lại 259776
bes@@ 259639
Zealand 259606
言 259493
Super 259388
sta@@ 259356
米 259278
ected 259128
mycket 259115
Many 259114
вал 259067
ban 258996
館 258936
edi@@ 258922
bezeichnet 258902
43 258896
beg@@ 258881
estaba 258865
access 258857
ose 258787
Seine 258776
Р@@ 258761
ż@@ 258603
aan@@ 258564
paper 258514
miles 258507
Ба@@ 258504
suddenly 258503
aya 258468
ligt 258422
составе 258400
16@@ 258397
eni@@ 258388
ered 258369
ista 258357
vita 258149
北 258135
atie 258107
고@@ 257939
posto 257687
Johnson 257661
Bill 257645
etta 257642
speed 257630
label 257592
cultural 257558
particularly 257549
sue 257504
الذي 257418
Um@@ 257314
版 257181
può 257167
開始 257147
sports 257135
sle@@ 257126
führte 257007
aciones 256986
ラ 256926
eter 256829
normal 256774
可以 256653
Francia 256622
cent@@ 256545
tournament 256523
党 256485
并 256457
Jan 256422
actor 256397
H. 256216
вать 256216
conditions 256054
kol@@ 256005
deutscher 255892
出身 255830
historia 255813
ин@@ 255763
step 255636
grew 255623
girls 255588
个 255562
minister 255469
limited 255385
head@@ 255250
cht 255244
Während 255133
nine 255133
edge 255107
1906 255087
Rom@@ 255033
後@@ 255018
Series 254914
Ki@@ 254903
Mount 254861
كانت 254757
gem@@ 254702
pt@@ 254700
Por@@ 254629
Dor@@ 254593
trat 254585
expression 254467
Young 254444
operations 254285
mac@@ 254224
原 254211
会社 254130
cũng 254021
answer 253998
agreed 253986
chief 253954
Pour 253908
通 253894
Science 253852
Soviet 253796
年代 253778
19. 253735
Mus@@ 253718
600 253705
Scott 253689
stre@@ 253606
Pu@@ 253580
experience 253552
タ@@ 253489
Northern 253466
wegen 253435
ан@@ 253418
oro 253378
ö 253336
dec@@ 253309
No@@ 253160
عدد 253159
terms 253123
Old 253068
filled 253021
ops 252998
oni@@ 252974
ame 252806
ь@@ 252749
46 252681
waiting 252672
día 252619
neue 252529
nie@@ 252523
launched 252496
management 252475
unit 252437
Esta 252332
ense 252266
federal 252161
ensemble 252086
Victoria 252002
regional 251989
officer 251950
dio 251947
numerous 251865
sti@@ 251865
där 251739
曾 251734
pot@@ 251689
R. 251669
legal 251590
gehörte 251528
скую 251519
Kur@@ 251510
Zu@@ 251484
Commission 251471
800 251454
sera 251248
simply 251167
esi 251166
ram 251082
ett@@ 251029
basis 250913
amente 250898
Pedro 250892
nuevo 250873
Dra@@ 250590
Kam@@ 250520
produce 250496
権 250452
C-@@ 250446
1909 250440
水@@ 250433
وي@@ 250370
fit 250346
happy 250287
stat@@ 250271
hurt 250243
looks 250239
Mont@@ 250198
press 250138
ナ@@ 250114
Fort 250108
Pacific 250083
ash 250074
15@@ 250049
diverse 249957
한다 249944
create 249888
mot 249858
direct 249850
perhaps 249778
author 249743
sign 249733
Mad@@ 249642
tego 249615
بن 249600
foot 249550
mid-@@ 249463
ries 249401
Anna 249291
лось 249262
W. 249251
fe 249227
1st 249220
3.@@ 249128
senior 249127
tard 249070
Jahrhunderts 248999
ath 248994
Rome 248955
ass 248955
También 248879
映画 248872
norte 248676
Ohio 248616
cle@@ 248609
kg 248569
sing@@ 248449
companies 248433
Entre 248428
aci@@ 248394
System 248363
ately 248358
segunda 248299
sem@@ 248294
ums 248239
actual 248127
histoire 248113
자@@ 248082
도 248053
camp 247871
イ@@ 247769
Queen 247667
Second 247622
nouvelle 247573
alism 247513
square 247247
Summer 247195
ture 247165
cz@@ 247151
için 247133
Es@@ 247131
Russia 247087
highest 247054
Ontario 247045
ду@@ 247030
nun 246936
contains 246904
sons 246868
alcuni 246847
ares 246797
str@@ 246708
Prix 246700
increased 246649
subject 246636
mur@@ 246599
kes 246580
Point 246563
evidence 246562
report 246556
Он 246540
부@@ 246518
주@@ 246515
matches 246500
failed 246454
18@@ 246405
disc@@ 246400
ire 246344
Sel@@ 246311
Album 246256
BBC 246249
Een 246105
الم@@ 246054
acy 246028
effect 245993
Hel@@ 245990
ologie 245956
That 245883
Walter 245879
isn 245869
watch 245782
appear 245670
ī@@ 245643
Championships 245496
stations 245452
hai 245410
trade 245286
hun 245085
Nar@@ 244986
arbeitete 244933
lay 244720
let@@ 244661
movie 244645
tutti 244584
Little 244578
enn@@ 244567
Od 244527
disco 244485
dic@@ 244447
Ш@@ 244402
erstmals 244348
mp@@ 244328
向 244289
ock 244239
response 244185
Research 244096
49 244094
Um 244062
ча@@ 244045
begin 244028
lag@@ 243973
ille 243938
ста@@ 243933
部分 243925
kel@@ 243903
ко 243892
路 243835
Province 243818
alt@@ 243817
double 243766
51 243759
nad 243723
nhà 243713
quelques 243693
ade@@ 243602
когда 243528
fun@@ 243490
rin@@ 243489
radi@@ 243479
worth 243474
Nord@@ 243386
nation@@ 243385
Pri@@ 243372
Lin@@ 243360
которых 243351
complex 243331
skiej 243324
香港 243308
fen@@ 243269
Battle 243211
ü@@ 243203
État 243179
oph@@ 243162
Vol@@ 243096
pay 243092
Ab 243077
oth@@ 243042
schon 242983
zen@@ 242937
kat@@ 242926
tussen 242903
ici@@ 242895
ن@@ 242886
nam 242866
heim 242840
против 242820
động 242760
Italy 242728
remains 242705
computer 242633
rap@@ 242474
時間 242471
sho@@ 242443
об@@ 242236
все 242184
quali 242159
inn@@ 242144
山@@ 242064
licher 242026
som@@ 241987
stro@@ 241942
Ham@@ 241930
cases 241925
indi@@ 241902
лы 241900
quello 241767
ellen 241763
quindi 241573
alb@@ 241551
selon 241549
zz@@ 241490
нов 241463
Jan@@ 241458
金@@ 241435
Ty@@ 241427
P. 241367
Top 241326
能 241269
but@@ 241197
fri@@ 241160
天@@ 241139
ik 241123
fish 241111
miêu 241046
arm@@ 241034
Ly@@ 240970
ball@@ 240947
hope 240783
shown 240742
dus 240684
lis 240586
hacia 240545
ł 240524
Rad@@ 240477
Joe 240453
larger 240444
water@@ 240395
mot@@ 240385
主要 240351
ги@@ 240271
wait 240230
houses 240146
oma 240099
ancora 240011
Pa@@ 239989
klimatzonen 239868
bin@@ 239796
territorio 239755
fils 239748
но-@@ 239732
roi 239704
fick 239703
Southern 239667
لا 239638
1904 239625
victory 239342
arte 239335
arch@@ 239297
dol@@ 239249
alis 239116
characters 239063
vote 239033
ending 238887
título 238867
bi 238800
fro@@ 238785
сто@@ 238771
än@@ 238706
座 238692
리@@ 238639
Town 238623
aff@@ 238594
Ci@@ 238509
associated 238501
정@@ 238444
pen 238373
Don@@ 238332
Jackson 238295
Pe@@ 238274
一般 238255
directly 238239
ция 238160
ю@@ 238126
gehört 238092
ligne 238064
유@@ 237971
Mit@@ 237966
one-@@ 237870
enen 237844
Copa 237717
economic 237645
époque 237536
ota 237524
54 237506
части 237496
хо@@ 237478
ル@@ 237439
log@@ 237428
iert 237393
Prince 237390
cargo 237381
ft@@ 237374
onia 237338
ited 237319
Billboard 237230
majority 237211
entes 237189
él 237128
image 237097
мая 237053
isk 237001
Ф@@ 237000
Bat@@ 236934
beautiful 236840
ral 236796
serving 236718
Kat@@ 236654
mientras 236562
Sydney 236499
AS@@ 236290
einige 236290
eastern 236224
nhất 236218
trouve 236207
straight 236192
아@@ 236159
Hi@@ 236151
зи@@ 236127
dentro 236122
Ми@@ 236040
sec@@ 235936
ミ@@ 235908
attempt 235818
त 235812
onal 235809
南@@ 235757
kin@@ 235751
appears 235713
ths 235608
oli 235600
situé 235564
уже 235522
テレビ 235421
會@@ 235370
bit@@ 235367
Sin 235358
Н@@ 235273
US@@ 235216
security 235209
corner 235098
pretty 235055
fare 234883
Blue 234844
Hal@@ 234783
Arthur 234691
海@@ 234669
waar 234663
пе@@ 234642
comp@@ 234621
fünf 234586
please 234561
problems 234508
additional 234505
municipality 234349
erst 234343
unique 234335
annual 234218
stared 234208
Cat@@ 234177
unds 234082
sondern 234076
seconda 234052
przy@@ 234021
sendo 234006
外 233964
lim@@ 233881
discovered 233855
Eu@@ 233849
jednak 233758
下@@ 233758
esse 233722
ped 233690
hiện 233622
pur@@ 233492
zy@@ 233489
famiglia 233456
че@@ 233445
ain 233411
ties 233268
ком 233197
Luis 233056
व 233016
asi@@ 233011
get@@ 232982
university 232943
Deutschen 232942
tan 232834
best@@ 232821
mos@@ 232817
México 232807
tracks 232753
ст@@ 232749
przy 232672
operated 232589
17@@ 232536
× 232489
文@@ 232477
retired 232473
Law 232454
activities 232434
ises 232385
viol@@ 232353
programs 232224
selected 232217
sitting 232210
command 232163
sy 232139
Irish 232121
kommun 232031
чтобы 231978
dois 231975
tree 231927
sydöstra 231812
К 231812
es-@@ 231765
termine 231735
alist 231692
ен@@ 231670
fen 231654
Omgivningarna 231485
mom 231330
番組 231236
dernier 231195
genus 231177
第一 231177
Line 231171
Pin@@ 231161
派 231115
fic@@ 231041
районе 230976
medical 230928
Year 230922
operation 230899
oh@@ 230881
stars 230881
closer 230798
drive 230741
verso 230664
全 230646
nearby 230627
共 230606
juin 230563
Asia 230490
upp@@ 230465
Fin@@ 230374
13@@ 230332
Cro@@ 230311
isme 230291
AC 230179
primeiro 230107
Ang@@ 230099
separate 230097
quality 230016
حيث 229984
artists 229974
ا@@ 229957
ensuite 229919
ع@@ 229916
하여 229887
Cy@@ 229882
四 229777
exactly 229656
superficie 229614
ем 229583
yard 229512
Federal 229411
هذا 229383
zie 229339
ril@@ 229287
Titel 229270
född 229254
religious 229237
jej 229117
Illinois 229087
Ba@@ 229051
Paulo 228930
ably 228912
14@@ 228884
Sc@@ 228870
25@@ 228853
owym 228835
Auf@@ 228834
aos 228774
cost 228719
र 228608
platser 228603
allen 228496
avi@@ 228496
But 228472
partido 228451
supported 228413
beat 228387
3. 228365
ры 228359
Greek 228352
mad@@ 228343
elling 228305
Max 228279
Zu 228167
weight 228157
medal 228146
B-@@ 228110
Film@@ 228104
code 227990
essa 227863
batt@@ 227851
85 227849
官 227839
zw@@ 227831
L. 227822
Education 227668
Heinrich 227651
étant 227503
6-@@ 227446
Sur@@ 227415
вая 227398
из@@ 227241
étaient 227084
此 226982
同@@ 226971
несколько 226964
owed 226910
została 226906
Mais 226897
administration 226894
около 226884
seines 226882
lec@@ 226876
Show 226825
broke 226784
日@@ 226731
ха@@ 226694
Wi@@ 226512
hydro@@ 226500
Long 226447
أ@@ 226422
sel 226371
zione 226357
n-@@ 226272
dou@@ 226203
sey 226140
1901 226134
remaining 226052
fand 225975
территории 225876
samt 225864
ub@@ 225857
ili 225856
Liste 225854
Railway 225813
신@@ 225801
кон@@ 225794
nice 225768
contact 225707
marriage 225666
No. 225627
Cam@@ 225554
Deze 225553
文化 225501
8-@@ 225484
delstaten 225476
erna 225365
rum@@ 225327
Wasser@@ 225300
dw@@ 225208
時@@ 225178
当時 225089
的@@ 225060
chef 225011
rey 224986
53 224933
organisation 224933
meaning 224900
mise 224834
ь 224754
EP 224748
nhiều 224696
erte 224609
Olympics 224588
Sein 224581
dalle 224489
goals 224398
ował 224384
ه 224332
寺 224312
з 224294
nes 224261
headed 224254
quanto 224243
baby 224205
non@@ 224087
feature 224085
安@@ 224013
Marie 224000
lado 223999
各 223934
1903 223918
itz 223880
riktning 223818
56 223788
parties 223787
ещё 223778
ced 223764
Giovanni 223745
tered 223625
results 223620
через 223583
edition 223569
В. 223566
века 223452
동@@ 223438
海 223419
ez@@ 223395
ography 223387
staat 223386
参加 223343
domin@@ 223330
komt 223233
Mike 223200
cell 223196
1902 223175
文 223113
Dom@@ 223098
Time 223094
èrent 223047
ド@@ 223000
ack 222957
(昭和 222954
Со@@ 222767
marca 222761
него 222669
гу@@ 222667
mesmo 222515
Mol@@ 222473
realized 222368
silver 222199
Jersey 222185
Theatre 222154
ick@@ 222151
ake 222121
ordered 222107
note 222003
Chris 221995
On@@ 221987
rie 221978
God 221931
initially 221914
VI 221857
د@@ 221837
站 221800
María 221740
referred 221724
ap 221709
nombreux 221677
mers 221647
a. 221585
ца 221567
ort@@ 221544
ric 221535
7-@@ 221509
gaze 221441
touch 221417
xã 221401
ij@@ 221370
Ha 221311
Premier 221293
recent 221284
estate 221152
singer 221145
We@@ 221111
мы 221004
ши@@ 220901
特@@ 220900
specific 220878
carrière 220798
Pen@@ 220792
negli 220692
мира 220683
Civil 220668
slightly 220656
obras 220637
hon@@ 220607
cour@@ 220559
годы 220556
제@@ 220529
actions 220496
nh@@ 220426
Ren@@ 220344
poor 220216
Michigan 220193
zweiten 220176
ły 220169
award 220161
ность 220129
neben 220101
focus 220078
fon@@ 220018
theory 220001
Pap@@ 219965
Corporation 219915
pin@@ 219866
eli@@ 219818
aired 219769
Dan@@ 219755
département 219721
menos 219716
była 219693
которой 219677
250 219669
ट 219628
および 219600
ular 219529
ery 219520
ذلك 219437
adores 219417
micro@@ 219371
Rec@@ 219348
多@@ 219329
compl@@ 219297
tuvo 219290
января 219254
theo 219030
95 218985
arono 218906
reste 218862
ige 218860
showed 218809
Pra@@ 218756
cont@@ 218722
responsible 218714
cht@@ 218654
rund 218620
це@@ 218597
nuovo 218573
inst@@ 218547
celle 218531
Bou@@ 218520
место 218512
·@@ 218493
champion 218483
lets 218452
Ap@@ 218256
政治 218239
декабря 218164
soldiers 218054
сти@@ 218011
장@@ 217998
presented 217979
ion 217955
ج@@ 217935
offer 217898
deuxième 217892
yt@@ 217725
gobierno 217694
stepped 217669
chez 217660
FM 217628
Public 217609
spread 217583
eds 217524
association 217522
dat@@ 217492
río 217410
besteht 217381
ß@@ 217340
cin@@ 217330
watching 217287
인@@ 217272
Tan@@ 217205
interior 217201
ने 217182
variety 217168
Their 217137
2nd 217094
Cl@@ 217079
près 216993
tenía 216967
earned 216881
パ@@ 216766
gesch@@ 216727
hin@@ 216700
隊 216684
composed 216675
mental 216634
часть 216615
scre@@ 216568
го 216508
地区 216457
phát 216449
qui@@ 216425
lab@@ 216388
bare 216342
可 216331
Chief 216329
sent@@ 216315
store 216282
église 216174
ington 216071
society 216067
ın 216063
Menschen 216012
Congress 215958
prison 215942
sotto 215921
ayant 215913
Ils 215872
mayo 215828
Conference 215809
eri@@ 215766
может 215747
eo 215710
Estado 215706
hatten 215674
им 215665
属 215583
ному 215467
進 215454
ads 215436
Como 215423
wind 215399
sions 215338
großen 215334
safe 215236
Des 215187
win@@ 215175
Ara@@ 215159
£ 215157
57 215152
时 215117
varios 214998
於@@ 214981
pushed 214969
ez 214867
中央 214779
58 214718
skim 214707
получил 214695
又 214665
Tel@@ 214642
list@@ 214567
increase 214541
ros@@ 214317
primeira 214256
lers 214229
motor@@ 214089
dieses 214055
Québec 214034
swe@@ 213985
troops 213969
tab@@ 213966
光 213910
fighting 213901
正@@ 213868
Durch 213829
din 213816
studierte 213803
ля 213795
seeing 213785
ニ@@ 213776
beyond 213734
alto 213718
mois 213638
aten 213611
30@@ 213596
ket 213533
stran@@ 213493
地域 213485
Ли@@ 213361
environ 213326
Mos@@ 213307
yn 213255
join 213190
trees 213114
Meter 213103
feld 213095
part@@ 213070
IS@@ 213061
presso 213059
Tom@@ 212951
ères 212935
里 212933
один 212875
records 212829
sm@@ 212717
성@@ 212673
positive 212615
1898 212557
genannt 212556
fear 212548
마@@ 212545
首 212534
septembre 212529
ira 212507
Tal@@ 212480
Str@@ 212457
whatever 212403
yılında 212356
niveau 212339
Aires 212327
Foundation 212280
gdzie 212280
Simon 212277
Л@@ 212261
italiano 212224
goes 212221
ings@@ 212216
ش@@ 211968
types 211958
将 211934
23@@ 211854
Buenos 211845
ían 211840
deutsche 211773
августа 211661
ля@@ 211595
mainly 211583
acji 211571
acting 211527
stories 211516
sem 211474
سنة 211469
июля 211436
地方 211435
agua 211395
mehrere 211353
financial 211343
habitants 211282
imp@@ 211203
ott@@ 211199
лу@@ 211184
jo 211132
20. 211066
зо@@ 211040
aka 210999
sts 210994
père 210973
Fran@@ 210905
Ку@@ 210891
ша@@ 210831
anger 210777
ihrem 210766
drama 210741
Tak@@ 210731
Stadt@@ 210730
gli@@ 210723
1890 210698
ased 210680
ман@@ 210649
rest@@ 210640
際 210617
suas 210609
laughed 210569
letzten 210547
spe@@ 210493
bộ 210473
rich 210457
wenn 210455
Harry 210386
programa 210316
tran@@ 210310
constructed 210238
throat 210215
kiss 210204
Sil@@ 210172
decide 210168
rh@@ 210059
telt 210030
0-@@ 210017
miejsce 209968
Geschichte 209961
č@@ 209938
acc@@ 209937
entonces 209874
difficult 209862
bay 209851
individuals 209789
alt 209780
Manuel 209751
ему 209698
Bob 209697
م 209665
agli 209591
bau@@ 209544
poder 209501
growing 209495
ются 209491
bon@@ 209481
hui 209480
mus@@ 209431
inga 209430
Steve 209413
termin@@ 209390
hành 209372
Ces 209369
ник 209303
Georgia 209301
department 209162
阿@@ 209145
teil 209144
Wilson 209025
senza 208961
Massachusetts 208912
aram 208892
斯 208884
provides 208797
homme 208796
administrative 208784
People 208762
сентября 208740
dent 208709
72 208707
spoke 208682
ī 208680
easy 208666
Bureau 208631
broken 208571
aller 208537
도@@ 208537
которая 208533
till@@ 208518
ows 208506
första 208470
liber@@ 208460
BC 208457
lack 208419
fel@@ 208407
населения 208385
cho@@ 208327
native 208308
sav@@ 208298
デ@@ 208287
Eastern 208247
Schul@@ 208245
latter 208215
subsequently 208142
ancient 208106
planned 208102
Sab@@ 208080
Gruppe 207947
soft 207924
Jewish 207904
mis 207904
ationen 207885
sleep 207859
steps 207857
120 207799
Var@@ 207748
Bri@@ 207742
govern@@ 207723
speak 207723
agu@@ 207715
Director 207690
ū@@ 207680
removed 207650
albums 207609
ager 207600
Je@@ 207545
스@@ 207529
atore 207500
Sur 207496
ци@@ 207482
ing-@@ 207270
開発 207268
своей 207256
人@@ 207234
Sen@@ 207179
nation 207176
два 207122
z. 207097
ми 207095
notable 207006
walls 207001
Elizabeth 206985
recording 206952
azioni 206947
principalmente 206907
الت@@ 206739
extended 206734
championship 206680
numbers 206669
cars 206668
juillet 206630
1899 206617
algunos 206607
diesen 206597
公@@ 206597
uta 206578
permet 206566
марта 206506
tional 206409
sides 206383
№ 206381
plat@@ 206358
利用 206337
ema 206305
sam 206217
volume 206208
paid 206185
द 206158
cuatro 206113
allo 206012
invest@@ 206010
Tod 205941
voor@@ 205939
questions 205918
cru@@ 205917
grade 205854
ッ@@ 205834
Live 205816
she@@ 205791
октября 205773
governo 205765
wel 205720
già 205574
competed 205364
hotel 205364
発売 205359
wil@@ 205350
san 205326
Не@@ 205245
però 205239
allerdings 205223
races 205193
fatto 205134
1897 205128
technology 205127
Ke@@ 205126
consists 205102
große 205083
zou 205064
hip 205030
Toronto 204968
emer@@ 204956
ق@@ 204941
制 204912
squadra 204878
ender 204855
Бо@@ 204848
espèce 204786
three-@@ 204778
Hospital 204772
なお 204748
フ@@ 204721
issued 204718
dent@@ 204713
text 204688
rist@@ 204642
share 204617
Е@@ 204539
1896 204532
geslacht 204518
kommunen 204411
июня 204410
ogni 204396
aid 204363
concept 204317
Britain 204306
honor 204300
contra@@ 204297
Spain 204278
ater 204228
\) 204170
sollte 204136
julio 204104
Os@@ 204093
ec 204060
ハ@@ 204049
película 203987
sab@@ 203981
F. 203978
ierte 203939
ej 203928
62 203913
presence 203848
último 203844
Mes@@ 203755
Star@@ 203710
policy 203680
县 203658
aut@@ 203611
Windows 203577
Of 203561
4. 203491
Nu@@ 203453
sig@@ 203419
fle@@ 203418
az 203264
以及 203260
Despite 203253
May@@ 203152
altre 203112
dr@@ 203070
parti 203066
24@@ 203039
Mundial 202990
ling@@ 202958
alli@@ 202953
området 202870
build 202848
todas 202742
tu 202696
región 202693
software 202675
kers 202628
top@@ 202621
souvent 202614
Major 202612
hat@@ 202585
ier@@ 202551
Ö@@ 202481
원@@ 202465
wieku 202427
fa@@ 202422
diferentes 202418
tegen 202395
有@@ 202376
18. 202319
量 202305
campus 202279
janvier 202259
New@@ 202239
其中 202225
News 202205
dom 202205
ord@@ 202190
Poland 202155
对 202122
のみ 202118
Parliament 202087
вали 202072
lit@@ 201985
Sa 201952
septiembre 201942
ности 201942
pueden 201936
settled 201924
dig@@ 201906
octubre 201906
sun 201885
других 201871
Sub@@ 201845
rue 201774
キ@@ 201734
ана 201730
seasons 201631
soll 201626
出@@ 201621
née 201616
enero 201576
бы 201573
國@@ 201557
rated 201553
fication 201552
sources 201550
일@@ 201546
4,@@ 201500
además 201390
пу@@ 201381
compte 201380
bling 201377
Office 201361
trac@@ 201321
gets 201305
Mur@@ 201256
nacional 201194
które 201179
municipal 201141
При@@ 201103
ex-@@ 201099
agent 201096
eva 201046
council 201038
Another 200967
Lat@@ 200952
ح@@ 200950
usa 200940
interno 200923
口 200876
G. 200823
Taylor 200786
起 200766
1895 200725
ク 200698
combat 200670
Route 200653
största 200651
octobre 200628
Lam@@ 200619
Cur@@ 200569
seconds 200532
教育 200528
ウ@@ 200507
公司 200465
Corps 200448
Santiago 200444
ней 200435
bru@@ 200426
Anfang 200411
AR@@ 200383
consu@@ 200356
prior 200348
ading 200342
intended 200324
66 200302
igen 200287
picked 200286
aga 200237
級 200141
كما 200132
Bu 200115
acquired 200114
Nova 200086
Assembly 200080
vision 200054
德@@ 199989
kur@@ 199832
있는 199774
Francis 199742
onder@@ 199697
afin 199696
Song 199693
할 199627
leaves 199623
Kra@@ 199548
pre-@@ 199541
1日 199540
sitt 199502
Según 199482
ices 199480
communes 199479
insieme 199454
hebben 199419
ieren 199384
س@@ 199361
tis 199309
Latin 199285
genre 199228
divided 199218
му@@ 199216
protection 199158
Па@@ 199123
effort 199095
mé@@ 199037
rule 198962
sites 198918
replied 198915
letter 198913
online 198897
firm 198885
Red@@ 198844
durant 198840
iss@@ 198831
lange 198799
63 198719
апреля 198713
whispered 198711
junio 198682
Dit 198665
已 198654
depois 198648
ja@@ 198648
dorf 198627
Men 198625
producer 198611
physical 198600
Ta@@ 198567
smaller 198489
gn@@ 198367
ją 198361
psych@@ 198338
затем 198327
value 198295
ds@@ 198226
pres@@ 198206
alis@@ 198136
draw 198086
jeu 198081
番 198058
Groß@@ 198008
ping 198003
Il@@ 197996
とも 197943
overall 197942
union 197920
pers 197898
mondo 197875
cou@@ 197873
amount 197869
Х@@ 197853
List 197847
Media 197792
ками 197771
turning 197603
**@@ 197566
transport 197543
sport@@ 197456
tỉnh 197419
Stein@@ 197406
Foi 197379
平方公里 197375
Ben 197372
glanced 197358
lista 197267
shut 197238
orden 197141
пре@@ 197132
조@@ 197132
hundred 197123
bis@@ 197076
titolo 197003
Gran@@ 196984
Fo@@ 196957
bers 196950
ins@@ 196946
kwam 196920
oltre 196917
Mis@@ 196897
ции 196867
Bundes@@ 196694
largo 196673
Lim@@ 196652
sup@@ 196611
truth 196600
format 196558
foreign 196536
apenas 196530
broadcast 196519
captain 196506
Dun@@ 196477
forte 196454
来 196440
cr@@ 196435
debido 196415
cities 196288
gouvernement 196279
ahead 196258
follow 196256
multiple 196241
iste 196238
Campeonato 196196
itt@@ 196181
고 196176
Not@@ 196169
лов 196089
오@@ 196031
François 195990
boys 195887
gie 195884
国@@ 195867
poly@@ 195851
programme 195834
U-@@ 195779
especie 195766
existe 195764
된 195746
dly 195706
Kilometer 195664
durch@@ 195663
enter@@ 195651
Sea 195550
Landes@@ 195526
recognized 195413
Tony 195382
تم 195375
nin 195349
proposed 195213
Hot 195196
graduated 195147
Pas@@ 195095
cul@@ 195091
existence 195078
무@@ 195071
serious 195055
ily 195011
weiter 194953
décembre 194943
ków 194918
motor 194904
ram@@ 194884
Hoch@@ 194848
상@@ 194813
미@@ 194770
secret 194751
enk@@ 194742
président 194737
ody 194714
位置 194688
以上 194687
sight 194671
brown 194665
Gr@@ 194645
1980s 194619
females 194619
polit@@ 194580
zar@@ 194529
memory 194500
Ker@@ 194459
gut 194436
ancien 194391
diciembre 194376
Nach@@ 194346
avril 194320
Diego 194152
ills 194077
这 194062
poste 194057
thị 194053
たち 194036
Scotland 194007
비@@ 193996
Airport 193987
ło 193934
estos 193917
700 193907
organiz@@ 193854
над 193787
unos 193781
gegründet 193765
asse 193758
cing 193738
haven 193667
partner 193645
wobei 193612
pur 193598
Unternehmen 193566
Barcelona 193563
Stra@@ 193558
finish 193533
ras@@ 193517
onen 193428
oned 193421
tätig 193408
多く 193401
Gebiet 193357
crew 193355
card 193342
lights 193316
ych 193296
ر@@ 193276
choice 193263
ble@@ 193199
erfolgte 193181
jaren 193172
Straße 193135
pair 193125
A.@@ 193103
Davis 193102
Ost@@ 193102
利@@ 193089
sat@@ 193059
그 193035
high-@@ 193030
находится 193020
Order 193014
59 193005
自@@ 192992
Kong 192987
seems 192986
walking 192986
levels 192982
celui 192891
1870 192831
etc. 192806
channel 192801
Ze 192746
ells 192692
rates 192621
warm 192615
Sud 192601
oil 192582
ه@@ 192555
鉄道 192545
historical 192533
Mountain 192513
вместе 192509
Dec@@ 192477
明 192462
parish 192442
lying 192367
Avenue 192343
歳 192331
問題 192302
animal 192297
Wien 192292
bau 192292
beside 192263
kra@@ 192242
bert 192231
\/ 192211
geen 192204
fase 192145
alta 192121
Gold 192080
группы 192074
sand@@ 191982
needs 191856
chỉ 191733
quan 191716
ca@@ 191669
spot 191638
proprio 191604
filme 191600
percent 191533
bland 191490
lit 191475
cinco 191471
sty@@ 191426
보@@ 191400
Internet 191357
ences 191328
guard 191322
armée 191319
việc 191314
Jacques 191245
outros 191221
Dutch 191205
doit 191181
qua 191134
isches 191106
almente 191095
вер@@ 191084
賞 191074
acht 191027
Form 190981
Sim@@ 190971
1889 190954
août 190949
hon 190949
pressure 190918
products 190799
ress 190794
efforts 190768
classes 190764
sale 190761
fs 190752
ign@@ 190735
recently 190733
馬@@ 190693
investig@@ 190670
ена 190656
SC 190606
flu@@ 190605
rural 190565
loved 190549
ز@@ 190484
서@@ 190425
boat 190418
ше@@ 190384
Franz 190315
function 190312
大会 190243
関 190154
Frau 190132
加@@ 190053
khác 190048
região 190032
vic@@ 190022
aden 189987
border 189936
い@@ 189928
revealed 189892
reli@@ 189850
highly 189843
flight 189836
screen 189833
ellos 189824
ノ@@ 189816
twice 189808
households 189714
quốc 189713
Both 189651
lei 189626
Про@@ 189534
mon 189523
enta 189395
minor 189310
공@@ 189284
rol@@ 189215
用い 189196
editor 189129
mentioned 189128
Gl@@ 189122
Der@@ 189071
aantal 188991
lose 188982
Adam 188940
tej 188938
quattro 188914
소@@ 188909
府 188881
外@@ 188859
Sz@@ 188850
Ford 188822
thank 188799
otro 188779
dog 188750
Berg@@ 188720
host 188684
Democratic 188682
Desde 188607
ビ@@ 188557
однако 188553
República 188526
owany 188412
gi 188363
echter 188355
yr@@ 188325
newspaper 188295
chiến 188286
tradition 188280
jer@@ 188266
luego 188259
gew@@ 188229
importantes 188186
stadt 188182
Londres 188174
事件 188162
Cou@@ 188153
وقد 188150
لي@@ 188111
Однако 188083
tow@@ 188055
ō 188022
risk 187960
Villa 187951
ноября 187941
viele 187851
ц@@ 187850
Lau@@ 187764
film@@ 187752
presente 187731
Gran 187701
thế 187657
god@@ 187619
machine 187602
Otto 187501
icus 187491
Mak@@ 187463
Arten 187408
ство 187329
page 187307
sexual 187287
década 187261
チーム 187237
Ар@@ 187183
Fil@@ 187157
　 187145
forest 187128
aki 187082
Gol@@ 187069
61 187066
ör@@ 187030
IN@@ 186980
spring 186948
分@@ 186883
68 186862
leg 186755
porte 186752
to-@@ 186743
liste 186739
ев 186732
veel 186725
cio 186689
ст 186657
Tam@@ 186637
ё@@ 186619
jour 186599
ston 186589
Ра@@ 186580
kitchen 186543
én@@ 186531
ín 186517
石 186464
5. 186444
ainda 186439
качестве 186422
1970s 186342
9-@@ 186337
officially 186336
Nachdem 186327
äl@@ 186308
平@@ 186275
leaned 186257
fran@@ 186247
integ@@ 186187
digital 186111
politician 186102
frente 186078
destroyed 186053
чем 186049
guess 186032
chten 186027
北@@ 186024
perfect 186004
purpose 185976
coast 185961
Entertainment 185940
F-@@ 185921
führt 185912
powerful 185902
necessary 185875
1880 185855
median 185842
sit 185828
地@@ 185804
Costa 185803
Kil@@ 185771
pis@@ 185748
無@@ 185698
Andrew 185697
務め 185674
distrito 185662
corps 185628
Mitte 185624
cùng 185612
singles 185607
stellen 185544
noviembre 185540
Hon@@ 185528
row@@ 185501
estas 185484
Game 185480
losing 185457
ità 185438
mist@@ 185404
1893 185403
classe 185396
temple 185340
eve 185327
xi@@ 185309
名@@ 185292
示 185241
員 185217
rare 185180
continu@@ 185178
gang 185172
fifth 185164
gives 185144
promoted 185119
onic 185106
Port 185092
Ob@@ 185043
ナ 185041
wards 185034
種 185014
bes 185008
Fox 184986
бу@@ 184985
ową 184922
モ@@ 184775
cuenta 184767
ały 184710
través 184708
medio 184707
19th 184681
Jim 184677
tale 184671
enter 184595
Q 184592
centrale 184569
которого 184548
high@@ 184529
ail@@ 184522
出場 184521
Ul@@ 184467
elements 184467
toda 184458
Zweiten 184405
社会 184395
relations 184380
primarily 184296
Finland 184223
Ме@@ 184212
É 184189
pode 184186
15. 184121
folgenden 184078
Lewis 184031
達 184027
ams 183995
schließlich 183988
Си@@ 183976
Beach 183956
fra 183945
nommé 183934
abitanti 183866
effet 183838
участие 183837
ają 183832
officers 183824
99 183758
libro 183746
prend 183726
lake 183604
blieb 183601
jud@@ 183580
chaque 183574
accepted 183563
grabbed 183432
metros 183412
Census 183334
supposed 183303
musste 183301
ción 183245
1892 183229
Also 183216
basketball 183215
Ре@@ 183143
visit 183039
vil@@ 183008
林 182974
initial 182956
88 182949
1894 182947
buried 182925
lock 182923
غ@@ 182899
prime 182897
positions 182873
fellow 182864
The@@ 182855
geboren 182849
knowledge 182824
remain 182797
さらに 182781
Wer@@ 182754
oft 182688
вых 182687
Sor@@ 182684
Coast 182663
assistant 182634
tarafından 182602
Oxford 182595
tutto 182595
り@@ 182573
67 182485
ها 182458
Lady 182440
Colombia 182403
考え 182403
всех 182363
Three 182347
1885 182324
m.in. 182315
faced 182306
fr@@ 182290
リー 182286
seem 182266
Henri 182252
vit@@ 182245
bot@@ 182199
arian 182179
1891 182117
mun@@ 182096
wechselte 182084
hum@@ 182083
無 182030
以降 182004
já 181997
• 181959
她 181925
stati 181916
軍@@ 181903
德 181832
Miss 181811
madre 181797
cet 181791
stan@@ 181739
oy@@ 181707
Hom@@ 181694
v. 181692
登場 181681
omkring 181665
tern 181620
elections 181617
rig@@ 181595
mountain 181543
発表 181517
.com 181499
ì 181445
ami@@ 181425
donne 181409
76 181404
世紀 181366
historic 181350
副 181325
aling 181314
斯@@ 181307
かけ 181243
mont 181241
vo 181234
osi 181217
aver@@ 181135
特 181134
Night 181114
recht 181109
website 181103
手@@ 181096
agreement 181060
февраля 181056
heat 181026
países 180971
Puerto 180965
天 180919
awa 180887
owner 180873
T-@@ 180821
sang 180798
anna 180744
ization 180717
Bay@@ 180693
growth 180652
jordbruksmark 180597
eck 180578
activity 180567
phase 180481
lord 180480
residents 180418
altro 180391
neu@@ 180388
ho 180385
kleine 180373
Aut@@ 180357
connected 180330
CA@@ 180325
tly 180323
Hong 180293
dant 180278
ル 180249
해@@ 180220
Ю@@ 180177
München 180164
ص@@ 180126
国家 180056
aded 180030
invece 180026
ave 180023
ost 180004
率 179971
Einwohner 179905
wer 179853
suggested 179841
wic@@ 179827
shit 179756
ys@@ 179739
ぶ 179723
再 179713
составляет 179710
mate 179684
pressed 179625
damn 179617
gmina 179581
appearances 179577
ong@@ 179559
Nella 179493
shoulders 179471
Việt 179443
sets 179423
América 179410
Sou@@ 179410
S-@@ 179303
shirt 179301
acted 179289
numero 179283
lig 179273
среди 179273
upper 179259
brand 179258
assigned 179216
còn 179199
Earth 179099
試合 179068
membres 179042
Pr@@ 179021
transferred 178982
дом 178937
ре 178913
eurs 178902
torneo 178896
рас@@ 178869
로@@ 178869
Lo 178840
Op@@ 178756
taught 178755
natur@@ 178678
要 178630
família 178584
américain 178562
4.@@ 178529
eles 178493
городе 178459
potential 178446
hood 178444
aqu@@ 178442
Na@@ 178424
easily 178389
sinh 178381
20th 178365
mu 178236
更 178225
eras 178215
77 178201
période 178194
fought 178176
set@@ 178150
rio 178068
approach 178061
sechs 178051
тами 178011
elec@@ 178002
save 177989
기 177945
cinq 177920
pos@@ 177912
関係 177894
också 177855
yan@@ 177823
premiers 177819
período 177806
yards 177749
Alfred 177712
ope 177702
Asian 177697
titled 177690
16. 177682
trust 177669
hizo 177653
rules 177599
jack 177576
oon 177549
lon@@ 177486
storia 177457
erin 177386
fly 177315
übernahm 177315
weiteren 177269
brothers 177188
workers 177168
zioni 177142
Мо@@ 177109
ute 177105
esi@@ 177100
ドイツ 177088
concert 177060
PC 177058
UN@@ 177055
distribution 177050
review 177044
gol@@ 177027
sit@@ 177000
erreichte 176941
Pil@@ 176927
toujours 176913
stark 176902
1888 176859
ais@@ 176790
ги 176785
Stadium 176779
78 176730
escape 176684
CO@@ 176650
Anne 176648
V. 176640
PS 176615
女 176579
ließ 176534
17. 176529
gebied 176451
duc@@ 176431
casi 176398
Norte 176388
canal 176304
política 176294
AG 176286
tells 176260
consider@@ 176230
present@@ 176224
И. 176218
tige 176179
pointed 176168
並@@ 176166
цев 176164
ag 176143
genom 176123
rôle 176112
ти 176107
قد 176047
え 176028
sector 176013
取 175977
Scottish 175944
ét@@ 175933
Wol@@ 175898
hab@@ 175883
block 175875
قبل 175826
6. 175822
Ay@@ 175820
huge 175809
doors 175808
zia 175796
馬 175737
Bil@@ 175729
Sun 175726
bottom 175716
Norden 175675
ST@@ 175567
eless 175562
Dem@@ 175530
versions 175481
含 175455
лом 175441
sedan 175420
SS 175351
구@@ 175329
Home 175304
Sin@@ 175292
ful@@ 175282
球 175250
Janeiro 175230
Bad 175229
jeweils 175196
Historic 175187
лен@@ 175186
welche 175184
किया 175160
odi@@ 175139
val 175139
ida 175135
ды 175134
sonra 175128
opposition 175057
71 175043
hơn 175023
exemple 175008
D' 175007
iled 174972
Sau@@ 174967
Vater 174848
影響 174833
strength 174794
район 174762
follows 174758
Gil@@ 174741
Zi@@ 174732
ну@@ 174710
скому 174673
teacher 174671
canción 174635
سي@@ 174628
メ@@ 174627
orders 174610
Pakistan 174581
Ball@@ 174574
Bis 174569
Av@@ 174549
ме 174545
ką 174534
ear 174533
스 174500
ym@@ 174496
telling 174459
له 174447
band@@ 174438
product 174372
98 174305
Та@@ 174291
protect 174282
ников 174266
Mun@@ 174259
pag@@ 174213
وفي 174213
aks 174211
roll 174208
Ra@@ 174186
rian 174179
kom 174126
город 174122
той 174120
vista 174119
podczas 174050
Gebäude 174044
96 174029
serves 174004
Fu@@ 173994
min 173979
Ot@@ 173948
Az@@ 173924
フランス 173887
estadounidense 173880
mus 173837
FA 173818
dès 173816
bury 173813
Stand 173808
Ali 173806
李 173788
candidate 173776
prominent 173767
projects 173760
Georg 173756
tears 173705
一部 173622
kiem 173553
Sam 173552
位於 173550
نسمة 173533
unable 173515
è@@ 173507
Я@@ 173459
тан@@ 173455
Се@@ 173448
organized 173428
ç@@ 173423
74 173422
ua 173416
lifted 173402
eil 173400
ス 173377
effects 173369
Austria 173365
ム@@ 173360
двух 173353
か@@ 173350
neu 173319
вого 173317
ゲーム 173303
anus 173291
slow 173277
テ@@ 173272
Cruz 173249
Bet@@ 173237
están 173213
5,@@ 173194
め 173178
anda 173158
mia 173126
prov@@ 173113
быть 173107
all-@@ 173077
rooms 173077
T. 173032
febrero 173014
ú@@ 172987
-e 172966
maior 172960
Miguel 172946
u. 172944
Су@@ 172913
scale 172912
ains 172896
verwendet 172891
occurred 172789
schen 172773
Justice 172762
73 172754
ان 172740
там 172704
ining 172679
나@@ 172669
D-@@ 172636
Kas@@ 172589
drawn 172552
muito 172551
Bereich 172535
ações 172534
82 172529
villages 172491
하@@ 172490
teeth 172471
セ@@ 172463
свою 172459
cross 172430
Cast@@ 172428
リーグ 172407
iser 172389
Sw@@ 172388
bou@@ 172384
1960s 172365
ства 172323
ain@@ 172317
ï@@ 172316
youre 172306
б 172265
AS 172262
siguiente 172257
фа@@ 172253
norra 172251
questi 172243
độ 172240
1990s 172228
話 172201
Township 172168
género 172157
mr. 172156
kim 172150
See 172140
bia 172099
тся 172071
web 171966
Ton@@ 171961
З@@ 171892
mixed 171876
nis@@ 171867
travel 171867
dur@@ 171850
campionato 171842
ческих 171827
History 171817
Master 171759
tin 171758
finden 171751
название 171740
69 171734
cked 171727
Social 171722
projet 171722
toute 171677
após 171676
settembre 171667
Kunst@@ 171665
graduate 171619
себя 171608
Stati 171596
spi@@ 171579
skie 171578
grote 171570
着 171559
erhalten 171554
же@@ 171512
Highway 171494
journal 171490
Sport@@ 171477
Hand@@ 171471
cast@@ 171453
Nov@@ 171417
our@@ 171413
peuvent 171408
drew 171383
nieuwe 171382
też 171371
ax@@ 171370
corso 171354
eto 171349
gare 171313
Amt 171292
Stephen 171288
fans 171260
stycznia 171220
hockey 171197
1860 171162
gor@@ 171123
industrial 171097
chiesa 171095
Kin@@ 171090
liv@@ 171090
kte 171068
membre 171031
Amsterdam 171024
Philadelphia 170997
11@@ 170985
Bir@@ 170957
前@@ 170949
女性 170897
König 170886
Duke 170870
södra 170848
40@@ 170846
chart 170836
神@@ 170824
Mal 170814
этой 170808
maggio 170807
eron 170769
offers 170733
cks 170728
Ludwig 170721
ka@@ 170703
Sports 170674
グ@@ 170646
内@@ 170644
rem@@ 170633
leaders 170612
birth 170607
zoals 170598
年), 170566
defeat 170559
Golden 170546
système 170528
字 170514
Prozent 170499
sac@@ 170471
males 170363
XVIII 170360
置 170339
notes 170322
bought 170314
none 170306
числе 170303
Nueva 170289
sử 170278
役 170241
nt 170218
Leben 170214
Roger 170207
Castle 170201
schaft 170191
études 170191
Manchester 170183
pull 170179
bles 170176
Dabei 170128
nam@@ 170118
symbol@@ 170088
音 170070
92 170030
bodies 170008
タ 169987
Patrick 169955
squ@@ 169951
克@@ 169905
Governor 169821
alongside 169821
younger 169810
grado 169784
Ten@@ 169763
gewählt 169756
laid 169746
zog 169743
ningen 169736
refused 169732
fest@@ 169725
어@@ 169719
pt 169662
tonight 169652
arti@@ 169639
في@@ 169606
Lang@@ 169589
wearing 169557
ジ@@ 169540
") 169539
ać 169523
sólo 169499
Br@@ 169470
therefore 169440
Sand@@ 169436
captured 169394
拉@@ 169304
Brian 169301
hau@@ 169298
main@@ 169282
trova 169269
meist 169236
equipment 169227
happen 169215
focused 169210
ブ@@ 169181
itions 169174
Mannschaft 169148
participated 169142
til@@ 169130
ха 169120
urs 169037
重 168972
Ran@@ 168970
thứ 168965
данным 168958
separ@@ 168922
esto 168919
野 168900
Whit@@ 168898
pieces 168890
Carlo 168877
Nations 168876
enten 168867
記録 168864
Cambridge 168821
XVI 168821
есть 168805
Ven@@ 168800
ге@@ 168789
Fe@@ 168786
dedicated 168783
dock 168779
trabajo 168761
jon@@ 168735
1886 168722
側 168709
見@@ 168687
rise 168631
Ash@@ 168625
wants 168625
orn@@ 168613
sign@@ 168585
declared 168565
commonly 168533
Mr. 168523
renamed 168520
ations@@ 168510
beide 168497
包括 168404
purchased 168389
ディ@@ 168326
damage 168323
Ва@@ 168310
isi@@ 168301
horse 168286
account 168257
din@@ 168256
ultimo 168255
miss 168179
bin 168168
gained 168166
石@@ 168141
色 168088
inform@@ 168087
Stockholm 168077
rolled 168043
管理 168032
All@@ 168020
capacity 168003
kommen 167954
fields 167944
edificio 167910
inoltre 167904
Dies 167864
ski@@ 167820
antly 167800
84 167799
eniu 167774
pubblicato 167750
présente 167743
ishes 167742
principales 167736
hin 167695
Hollywood 167674
Quốc 167673
神 167610
SE@@ 167603
tig 167563
Ро@@ 167556
1887 167549
времени 167531
три 167531
illy 167522
marine 167497
lac@@ 167468
ники 167456
ę@@ 167424
五 167413
verschiedenen 167379
library 167370
växtart 167352
組 167352
treatment 167318
Journal 167315
P-@@ 167314
I-@@ 167304
歌 167293
conocido 167268
白@@ 167253
Lar@@ 167230
hen 167135
counter@@ 167108
和@@ 167096
cli@@ 167092
При 167073
Samuel 167053
bronze 167047
1871 167039
Johannes 167033
Kim 167032
ž@@ 167030
Dou@@ 166959
93 166957
生活 166957
河 166949
eni 166922
Minnesota 166882
Disney 166874
fjärilsart 166836
Republican 166832
occasion 166829
ガ@@ 166821
0,000 166815
compar@@ 166782
elen 166779
architecture 166775
26@@ 166737
youth 166694
cus 166692
tone 166666
östra 166642
Río 166634
giugno 166626
Main 166612
cri@@ 166598
isation 166592
arsi 166569
nat@@ 166515
rier 166475
50@@ 166474
Bran@@ 166428
gilt 166428
société 166373
nad@@ 166287
DC 166260
生@@ 166253
ova 166250
Middle 166241
entstand 166240
presenta 166231
proce@@ 166214
huyện 166201
noticed 166182
Ook 166181
path 166179
81 166175
insgesamt 166167
Institut 166164
finals 166149
Trung 166122
post-@@ 166043
цию 165990
우@@ 165982
dates 165975
ury 165973
regul@@ 165924
allowing 165876
定 165874
unt 165827
aled 165814
split 165806
conver@@ 165784
nhân 165764
死 165739
美 165731
Atlantic 165674
fis@@ 165633
rad@@ 165632
jours 165622
ение 165606
86 165597
wings 165577
Vo@@ 165558
enc@@ 165551
всего 165526
主 165518
Ele 165509
enz@@ 165488
rant 165473
Dort 165468
marked 165461
yan 165445
夫 165414
Sun@@ 165401
Ви@@ 165399
vilket 165361
extra 165330
明@@ 165289
syn@@ 165246
västra 165242
Kir@@ 165229
coc@@ 165186
提供 165186
nom@@ 165184
所属 165158
家@@ 165137
dag 165115
dazu 165112
tijd 165091
conducted 165072
Lor@@ 165063
با@@ 165056
formerly 165054
hemiboreala 165033
gate 165026
Lei@@ 165003
aking 164994
Over 164987
था 164977
ener 164937
Marine 164902
начале 164901
continues 164875
भी 164863
rugby 164851
surrounding 164840
định 164839
公 164828
вает 164813
vent 164800
两 164762
guar@@ 164674
シリーズ 164666
arios 164643
Fol@@ 164642
Network 164636
兵 164631
Nag@@ 164628
Ing@@ 164614
toutes 164614
Bridge 164613
skich 164596
1848 164582
原@@ 164575
atory 164559
alten 164545
namn 164502
Santo 164494
だけ 164487
1884 164483
Ett 164481
Мар@@ 164473
пла@@ 164471
7. 164428
etc 164412
حتى 164392
aufgrund 164359
Is 164305
content 164305
collec@@ 164280
regi@@ 164277
atori 164255
février 164251
det@@ 164210
모@@ 164206
Dev@@ 164187
lou@@ 164166
жизни 164143
Де@@ 164136
8. 164135
ダ@@ 164132
performances 164130
Win@@ 164115
celeb@@ 164106
Hotel 164062
silence 164043
isch-@@ 164032
Fernando 163961
фи@@ 163948
pad@@ 163946
Rem@@ 163941
housing 163936
haus 163924
94 163907
tin@@ 163897
alists 163885
mile 163868
bus@@ 163859
ネ@@ 163851
dell 163832
finger 163817
Ent@@ 163768
path@@ 163745
Hamburg 163723
ри 163712
evening 163683
vùng 163679
dess 163668
ande 163646
hei@@ 163626
成立 163623
enza 163590
branch 163583
Polsce 163535
ар@@ 163521
ン@@ 163513
territoire 163494
folgender 163486
心 163480
gh 163476
tru@@ 163466
село 163454
anc@@ 163442
thanks 163417
全国 163348
troisième 163345
Born 163311
開@@ 163254
direc@@ 163245
ef 163239
compared 163224
featuring 163223
suffered 163206
1864 163196
79 163148
му 163146
conference 163127
مي@@ 163115
claim 163064
ii 163057
lan 163046
своего 163004
hình 162985
Development 162975
重要 162957
gg@@ 162921
jar@@ 162897
Post@@ 162887
knowing 162864
superior 162864
reading 162861
haber 162860
را@@ 162853
最後 162827
-H@@ 162794
83 162710
自己 162707
urg@@ 162607
13. 162585
cker 162580
rich@@ 162571
winter 162562
rä@@ 162482
14. 162466
Га@@ 162437
Kansas 162430
clothes 162397
winner 162390
alized 162389
без 162288
droit 162268
1878 162252
advis@@ 162234
ften 162224
ー 162187
Nieder@@ 162178
eman 162151
دي 162109
pap@@ 162101
speaking 162073
ë 162069
都市 162064
figures 162021
pro 162007
мен@@ 161983
beneath 161916
Plan@@ 161905
Book 161883
ран@@ 161877
ção 161839
half-@@ 161825
dress 161779
internationale 161765
ander 161751
iki 161739
adopted 161728
widely 161715
château 161713
Dal@@ 161695
articles 161693
rating 161693
全@@ 161683
ret 161682
Selon 161671
earth 161670
nombreuses 161619
音楽 161605
œuvre 161600
sé@@ 161555
AN@@ 161552
Like 161547
航空 161538
армии 161534
stands 161533
ц 161532
вые 161531
três 161500
UEFA 161492
gennaio 161486
đồng 161477
kap@@ 161428
жа@@ 161418
hed 161400
1862 161365
hen@@ 161363
jazz 161345
チ@@ 161344
M-@@ 161309
国際 161287
Landkreis 161257
Theater 161244
Each 161234
etto 161225
tên 161222
지 161214
berg@@ 161207
(" 161129
97 161127
إ@@ 161110
baseball 161095
certains 161076
defin@@ 161039
core 161038
Dieser 161034
hace 161029
Ma 160999
Senate 160995
ened 160989
Uni@@ 160938
arna 160938
ust 160938
doctor 160924
Haus 160890
tigen 160825
otra 160822
empresa 160734
empty 160729
き@@ 160723
search 160709
頭 160706
fallen 160699
Secretary 160667
وم@@ 160635
darauf 160622
Mul@@ 160612
typically 160585
За 160581
ottobre 160578
rus@@ 160541
trains 160540
estilo 160509
crime 160502
drie 160494
воз@@ 160477
español 160438
Olympic 160417
erschien 160401
tower 160381
settlement 160370
Final 160329
しま 160323
1863 160322
比 160303
traffic 160295
Colorado 160294
platform 160286
surprise 160277
territory 160276
luglio 160261
facilities 160233
interview 160206
它 160206
thats 160204
п 160187
стала 160187
開催 160157
9. 160150
dow@@ 160142
المتحدة 160119
cycle 160104
h-@@ 160095
ordre 160080
1882 160045
nor 160030
driver 159996
mass 159957
capit@@ 159954
27@@ 159946
Islands 159931
reaching 159919
setting 159878
Sverige 159862
AL@@ 159861
chosen 159816
1865 159815
Bus@@ 159815
Neben 159783
stomach 159778
francese 159724
importance 159717
必要 159685
Spi@@ 159677
VII 159669
nas@@ 159619
rapport 159578
1861 159507
passing 159491
Además 159482
Tochter 159460
-- 159449
重@@ 159407
خ@@ 159372
Junior 159344
Verein 159328
AP@@ 159295
Vil@@ 159270
uk@@ 159261
keeping 159260
heads 159257
nomin@@ 159227
Before 159223
eding 159222
dice 159218
マン 159202
grave 159130
Savannklimat 159126
木 158999
publication 158971
grâce 158966
gar 158945
papel 158944
lus 158935
Uniti 158930
wave 158905
Kinder 158891
87 158886
ボ@@ 158875
sum 158870
残 158862
ческий 158859
holds 158851
Ca@@ 158841
dare 158834
varias 158805
executive 158788
Tim@@ 158762
ках 158727
Mexiko 158717
impact 158717
человека 158712
選 158699
ismus 158694
condado 158668
vlinder 158654
quiet 158652
シーズン 158587
greater 158579
nó 158548
guitar 158525
arg@@ 158504
称 158500
该 158485
sul@@ 158480
gam@@ 158473
possibly 158472
sounds 158461
Health 158441
musique 158429
се 158427
determined 158418
operating 158386
realiz@@ 158284
humans 158282
oi 158231
Volks@@ 158187
監督 158177
muerte 158170
годов 158139
Gesellschaft 158138
器 158128
entrance 158124
tier 158113
trial 158080
anyway 158076
footballer 158067
Rolle 158064
akes 158056
xuất 158024
estimated 158012
bic@@ 158007
Bau 157965
Wei@@ 157964
勝 157962
terra 157961
主@@ 157953
tall 157945
न 157931
shared 157923
bag 157879
tennis 157876
Press 157849
alive 157833
italiana 157820
هم 157818
alcune 157808
Pel@@ 157803
Cross 157781
Miller 157678
Mann 157664
Ла@@ 157638
errichtet 157636
28@@ 157621
ising 157608
Gel@@ 157585
Süden 157542
ilk 157538
plane 157522
död 157500
roman 157492
founder 157453
phot@@ 157443
oli@@ 157419
calling 157418
combined 157418
później 157414
relief 157411
bing 157400
लिए 157346
リ 157312
agen 157311
Ле@@ 157311
coun@@ 157280
بي@@ 157267
largely 157255
dem@@ 157236
dated 157216
safety 157215
primi 157202
windows 157195
send 157146
Channel 157097
mellan 157096
Это 157060
roles 157047
AM 157037
amp@@ 157031
子@@ 157016
人物 156993
picture 156982
Polish 156981
origin@@ 156979
gun@@ 156974
four-@@ 156952
ческой 156948
eful 156945
attività 156911
指 156904
ison 156903
eli 156893
nose 156868
OS 156867
Gri@@ 156848
coffee 156823
điểm 156823
kow@@ 156783
Pic@@ 156782
dicembre 156778
Eric 156776
iten 156770
succès 156756
localidad 156743
RA@@ 156695
ev 156679
stairs 156672
خلال 156650
Ou@@ 156644
集 156599
12. 156592
dụng 156584
stayed 156574
區 156573
fy 156474
bon 156440
CE@@ 156411
tight 156407
viên 156389
II. 156384
لم 156383
anim@@ 156379
Korea 156369
particolare 156361
Stone 156357
application 156355
ника 156339
Anti@@ 156328
insbesondere 156301
amed 156287
Area 156271
knows 156264
最初 156262
owi 156224
stabil@@ 156211
Indiana 156207
favor 156194
Ir@@ 156181
deci@@ 156175
5.@@ 156150
Dol@@ 156146
plants 156145
familiar 156133
對@@ 156048
Melbourne 156038
blandskog 156015
muchos 156005
def@@ 155993
west@@ 155985
М. 155977
成@@ 155969
iva 155919
Rou@@ 155917
Plat@@ 155912
Victor 155873
Lou@@ 155870
cer 155868
royal 155844
storm 155840
phía 155833
Cra@@ 155801
委員 155796
раз 155793
designated 155784
1881 155739
之@@ 155724
لا@@ 155720
ark@@ 155713
inten@@ 155681
0s 155666
Mario 155657
technique 155656
vị 155650
condition 155640
konnten 155638
работал 155638
comman@@ 155619
ours 155592
獲得 155592
Mau@@ 155568
handed 155554
сом 155550
dal@@ 155537
carrera 155517
gan 155513
bound 155501
method 155434
Ч@@ 155432
becomes 155416
族 155402
academic 155364
falls 155338
oficial 155325
Lit@@ 155287
ении 155237
Rob@@ 155220
iny 155203
millions 155203
段 155202
uc@@ 155201
教 155169
público 155164
ения 155130
конце 155085
91 155010
thick 154992
personnes 154982
inner 154942
Power 154892
主義 154872
хи@@ 154851
Missouri 154808
pick 154803
with@@ 154789
stream 154779
â@@ 154762
neg@@ 154730
painting 154715
pit@@ 154702
kommt 154675
(平成 154670
Monte 154662
Nederlandse 154661
Tras 154651
begins 154650
し@@ 154640
bie 154634
MA 154607
ann 154597
stock 154592
covers 154573
thoughts 154556
edly 154552
生まれ 154528
해 154528
ías 154498
crowd 154478
density 154443
misma 154440
turns 154380
Regiment 154378
AT@@ 154357
cuộc 154357
ebbe 154348
Staats@@ 154345
Captain 154324
ika 154317
Hoa 154310
vac@@ 154288
Kỳ 154247
Rahmen 154195
ак@@ 154192
表示 154175
jan@@ 154173
czy 154148
sens 154147
Hamilton 154117
chose 154112
generale 154110
Fu 154066
CI@@ 154048
Кар@@ 154046
passage 154033
合 154029
Howard 154010
corpo 153966
emp@@ 153929
chan@@ 153903
enfants 153884
shed 153875
iling 153858
tus 153832
Gli 153830
occupied 153820
중@@ 153807
wish 153802
Par 153780
세@@ 153750
Register 153697
1879 153666
Gau@@ 153641
89 153635
tvåvingeart 153631
ator@@ 153617
zij 153608
にて 153600
semi-@@ 153593
의@@ 153584
And 153529
peace 153525
guys 153520
Cab@@ 153517
gue 153517
murder 153482
stand@@ 153457
learned 153442
имеет 153431
船 153389
erw@@ 153307
furent 153275
ér@@ 153269
schule 153258
września 153192
eros 153178
vali@@ 153168
म 153159
smo@@ 153135
K. 153121
apo@@ 153101
languages 153093
इस 153087
rol 153086
gol 153081
bir@@ 153071
audience 153063
7,@@ 152994
jeune 152988
promotion 152984
Jesus 152940
1876 152919
結果 152919
sak@@ 152892
ch-@@ 152873
वर 152870
Grund@@ 152847
nueva 152805
île 152798
‘ 152788
Library 152787
hommes 152775
message 152738
erneut 152737
會 152694
星 152658
法@@ 152645
cao 152633
figlio 152629
lav@@ 152598
returning 152593
ления 152554
zm. 152529
ew 152525
bad@@ 152500
fts 152461
1883 152458
bak@@ 152430
出演 152425
教授 152420
Weltkrieg 152399
وأ@@ 152398
tête 152358
defined 152334
Süd@@ 152317
Mittel@@ 152316
الس@@ 152295
dig 152284
lä@@ 152280
tit@@ 152223
infatti 152198
Arbeit 152196
Guerre 152194
Partido 152193
sto@@ 152170
ride 152112
ński 152096
oy 152091
test@@ 152077
можно 152075
Deutsche 152073
Richtung 152073
kar 152066
dry 152065
Millionen 152033
global 152002
Ed@@ 151975
qual 151971
1867 151945
Pro 151940
apped 151933
イギリス 151927
capitale 151881
mode 151866
ideas 151860
Michel 151855
int 151842
motion 151842
mano 151827
constitu@@ 151812
đội 151809
tened 151801
Due 151791
travail 151757
eingesetzt 151754
aler 151746
Business 151736
animals 151735
write 151724
Vietnam 151663
mod@@ 151610
allows 151591
lassen 151582
esp@@ 151580
Winter 151561
net@@ 151561
Raj@@ 151559
liked 151555
cánh 151552
nhưng 151526
Rose 151516
confirmed 151510
wan@@ 151508
enemy 151499
samen 151493
身 151483
hijo 151470
Ernst 151452
ningar 151421
設置 151393
zio 151376
então 151367
Vel@@ 151350
tax 151347
tives 151314
室 151259
Dal 151250
André 151228
Technology 151213
decor@@ 151212
Ки@@ 151164
Пе@@ 151158
chron@@ 151153
कर 151152
事業 151095
critical 151046
kw@@ 150993
cos@@ 150991
drink 150941
rus 150935
Spiel@@ 150934
app@@ 150919
Australien 150918
SP@@ 150910
Tag 150908
Prime 150876
episodes 150831
mark@@ 150828
6,@@ 150827
erie 150823
pom@@ 150814
było 150810
connu 150806
AM@@ 150803
atives 150802
bahn 150731
頃 150722
полу@@ 150712
lớn 150683
Vit@@ 150668
attacked 150663
så 150609
Hen@@ 150591
Beispiel 150560
Douglas 150548
Lors 150545
bun@@ 150544
tweede 150542
duas 150531
col 150522
multi@@ 150515
士 150464
الع@@ 150460
Tab@@ 150422
aprile 150422
at-@@ 150395
тель 150385
respectively 150348
decre@@ 150347
prefer@@ 150345
castle 150342
agit 150306
granted 150300
यह 150297
bands 150285
Fri@@ 150253
Family 150240
zed 150173
ческого 150155
Sul 150151
− 150150
1875 150140
bill 150138
다@@ 150128
tema 150122
cách 150116
Dorf 150096
militaire 150081
노@@ 150037
ając 149999
eigenen 149973
tures 149946
ther 149942
zel@@ 149928
Bell@@ 149926
爾@@ 149925
eeuw 149910
quick 149907
brain 149900
CA 149853
fosse 149851
zurück@@ 149828
Fal@@ 149826
Bru@@ 149813
流 149796
Kap@@ 149789
古@@ 149783
fir@@ 149740
gru@@ 149728
permanent 149724
FIFA 149710
記 149708
Med@@ 149659
za@@ 149633
ш 149630
-L@@ 149628
3rd 149628
carry 149623
davon 149600
leadership 149590
yi 149589
iner 149582
gruppe 149570
sales 149560
wear 149518
wir@@ 149509
tijdens 149506
ティ@@ 149505
awards 149501
hosted 149482
altitude 149449
explained 149447
se-@@ 149445
Special 149441
bản 149436
tự 149436
ロ 149432
тем 149428
geb@@ 149419
fast@@ 149415
aster 149408
ateur 149385
afraid 149371
etic 149361
Mé@@ 149353
tap@@ 149333
直@@ 149332
Frankreich 149329
clu@@ 149315
população 149314
ながら 149310
ホ@@ 149295
克 149283
bright 149270
NBA 149260
品 149257
Forest 149255
ска@@ 149242
وهو 149234
成功 149224
Бу@@ 149219
clo@@ 149210
bởi 149198
Después 149175
sino 149171
Fall 149132
kunnen 149073
業 149046
ranked 149035
brief 149032
weer 148972
nuova 148967
uk 148954
1866 148938
Venezuela 148934
sch 148931
Police 148926
cen@@ 148916
Post 148903
były 148888
работы 148888
berger 148883
seats 148858
grupos 148844
Aus 148838
Thi@@ 148789
Euro@@ 148780
史 148717
setzte 148712
Osten 148705
innerhalb 148685
cab@@ 148680
techniques 148666
ności 148632
ack@@ 148625
ск 148603
drop 148569
Bab@@ 148536
finales 148508
eer@@ 148507
29@@ 148475
Ka@@ 148475
1868 148441
Pur@@ 148441
keversoort 148382
geht 148364
hav@@ 148338
rö@@ 148308
missing 148307
titles 148281
según 148258
Anderson 148238
receive 148213
clearly 148206
同じ 148205
powiecie 148189
provincie 148152
Hockey 148140
rage 148136
czasie 148134
insect 148124
Außerdem 148123
ō@@ 148104
weapons 148077
école 148066
Bishop 147998
person@@ 147952
-up 147932
detta 147887
ula 147844
eno 147842
play@@ 147752
たり 147707
كل 147704
ري@@ 147696
Jr 147682
sche 147667
tain 147656
osób 147632
ght 147621
bestand 147609
claims 147609
vers@@ 147601
Tran@@ 147591
gas@@ 147578
resulted 147577
killing 147570
Lincoln 147567
sted 147555
fat@@ 147532
prix 147528
oides 147519
Arizona 147499
cement 147440
nın 147430
owania 147404
mediante 147397
Wo@@ 147393
situated 147372
mil 147338
-R@@ 147328
esis 147326
ário 147308
última 147284
Revolution 147282
Hou@@ 147280
aujourd' 147270
providing 147262
Westen 147254
民 147245
centr@@ 147217
militar 147208
yo@@ 147207
blan@@ 147206
Во 147178
Бе@@ 147154
화@@ 147142
lungo 147120
kten 147087
Queensland 147067
rock@@ 147052
specie 147025
resto 147024
этот 147020
surprised 147009
trouble 147005
nello 146996
Bot@@ 146974
1874 146971
cup 146967
Tru@@ 146964
eus 146939
Rot@@ 146920
ond@@ 146919
1872 146915
wen@@ 146910
Reino 146904
rar 146899
ouest 146884
港 146877
program@@ 146874
Также 146869
س 146844
damals 146828
1850 146818
expanded 146814
identified 146791
communities 146781
down@@ 146770
answered 146741
ed-@@ 146718
twenty 146695
isa 146693
ثم 146682
conversation 146651
lady 146634
analysis 146625
trở 146600
generation 146565
low@@ 146557
ax 146498
國 146494
プ@@ 146475
Alex 146474
khu 146465
Vis@@ 146449
días 146449
Staaten 146446
transfer 146432
nis 146410
正 146388
cant@@ 146379
橋 146375
championnat 146351
rain 146314
mill@@ 146299
Einsatz 146293
basen 146292
Quando 146281
stellte 146195
hans 146190
ès 146169
Rat@@ 146152
gian 146137
tak@@ 146123
الح@@ 146118
votes 146110
yellow 146102
costa 146051
hecho 146036
barely 146006
maison 146006
mare 146002
sion@@ 145998
安 145960
entirely 145956
pouvoir 145953
erung 145932
истории 145887
pueblo 145882
優勝 145873
平 145862
racy 145845
Ry@@ 145813
kon 145804
lập 145727
starb 145722
Francesco 145707
kul@@ 145701
wat 145696
산@@ 145683
racing 145682
只 145664
вание 145656
Seite 145650
successo 145644
gui@@ 145631
uri 145618
первый 145615
Bul@@ 145611
porque 145608
C.@@ 145607
mayoría 145602
ativa 145595
rein@@ 145529
yle 145524
Out@@ 145489
phải 145482
el-@@ 145465
vent@@ 145463
eries 145450
shape 145386
ン 145365
yourself 145361
cultura 145343
1877 145287
religion 145281
joueur 145280
effective 145254
Sat@@ 145244
Ан@@ 145216
NFL 145165
accident 145165
annat 145148
s. 145131
Sav@@ 145108
pay@@ 145087
Partei 145078
models 145074
roof 145055
egen 145049
SA 145047
10. 145013
ве 145013
planning 145007
now@@ 144975
bom@@ 144974
wei@@ 144966
siège 144952
Ха@@ 144950
chen@@ 144946
mejor 144932
最高 144909
Pot@@ 144869
dam 144845
ning@@ 144845
バス 144845
Field 144841
亦 144836
Năm 144828
giới 144794
10-@@ 144775
第二 144763
其他 144740
ul 144727
districts 144726
organis@@ 144725
calls 144719
liegen 144719
1873 144715
tam@@ 144715
연@@ 144714
owing 144685
prze@@ 144674
Bak@@ 144668
perché 144626
avoid 144610
inge 144595
bang 144588
eat 144587
Schule 144576
hill 144562
bek@@ 144556
ät@@ 144539
Kl@@ 144532
staring 144532
eln 144502
scoring 144490
public@@ 144467
reduced 144467
attacks 144463
남@@ 144449
adora 144445
大阪 144400
versch@@ 144387
Dam@@ 144373
Wor@@ 144364
ES@@ 144362
olog@@ 144362
reasons 144359
相@@ 144353
艦 144320
Bij 144316
newly 144306
maximum 144303
soul 144298
Wisconsin 144280
ativo 144255
Tropiskt 144247
Fra@@ 144226
период 144203
committee 144201
nominated 144185
正式 144179
powers 144172
enh@@ 144164
店 144156
year-old 144137
Wit@@ 144121
義@@ 144111
reality 144099
letters 144063
commissioned 144062
eck@@ 144039
Four 144032
reviews 143958
ring@@ 143949
images 143926
ヒ@@ 143916
laws 143881
نسبة 143868
入@@ 143854
Pon@@ 143851
i-@@ 143837
Anthony 143809
из-за 143807
Allen 143778
weren 143760
Den@@ 143758
基 143749
-D@@ 143740
aca 143658
laquelle 143641
llamado 143581
alan 143530
тро@@ 143520
iles 143516
birds 143504
Tennessee 143472
conjunto 143455
Nic@@ 143447
Alan 143421
個@@ 143404
października 143399
Beginn 143390
FI@@ 143375
деревня 143346
Folge 143318
która 143317
maja 143309
ون 143295
ening 143275
prince 143266
У 143243
ания 143224
tongue 143213
vampire 143212
Van@@ 143195
Ga@@ 143169
ним 143165
guns 143162
explo@@ 143141
portion 143117
وا@@ 143105
имени 143088
ë@@ 143078
ま@@ 143076
lang@@ 143055
quar@@ 143051
écrit 143044
lip 143040
alls 143021
trip 143009
université 142960
ensch@@ 142956
grand@@ 142938
jan 142938
ared 142920
AI@@ 142900
preten@@ 142855
AD 142853
missions 142828
한@@ 142810
타@@ 142788
suff@@ 142743
kre@@ 142717
Syn@@ 142714
cells 142675
ط@@ 142674
sau@@ 142646
غير 142608
equ@@ 142599
heutigen 142595
ста 142577
threw 142543
美@@ 142539
vet@@ 142528
platz 142518
sir 142506
eld 142494
ア 142477
Clark 142462
ało 142448
ге 142448
pool 142446
強 142418
develop 142408
fiction 142383
Because 142357
XV 142335
مثل 142323
sehen 142255
связи 142255
ech 142220
manera 142215
Khan 142208
refer@@ 142168
fille 142167
applied 142151
raison 142121
Unter 142050
vengono 142032
Pod@@ 142020
या 142018
йский 141995
바@@ 141979
Bernard 141976
SR 141963
ну 141944
CH@@ 141936
ما@@ 141933
accep@@ 141903
household 141896
successfully 141827
NGC 141820
Alt@@ 141804
ima 141798
11. 141779
Euro 141759
alternative 141737
вым 141723
teaching 141692
apart 141674
seis 141632
organ@@ 141612
ール 141606
División 141596
Provinz 141585
phân 141540
creation 141494
ándose 141482
iers 141473
ues 141434
Studios 141430
anten 141413
Fun@@ 141407
ambos 141370
利 141354
Oscar 141302
femme 141238
"@@ 141229
pelos 141189
Leg@@ 141165
вом 141161
assu@@ 141160
zweite 141159
omgivande 141157
Sciences 141154
remembered 141148
th-@@ 141144
authority 141133
molti 141099
rick 141092
Jam@@ 141081
driving 141074
facility 141068
kę 141067
iler 141056
Ministry 141022
last@@ 141018
silent 140999
tol@@ 140995
Port@@ 140984
defen@@ 140964
grudnia 140930
findet 140915
long@@ 140914
ans@@ 140908
fair 140904
Memorial 140885
czerwca 140883
hole 140872
junior 140864
chem@@ 140851
通常 140819
Š@@ 140805
kiego 140797
thin 140771
pion@@ 140748
ligen 140716
Cos@@ 140706
livre 140676
commander 140672
선@@ 140643
grazie 140632
chin 140630
Kreis 140602
Centro 140575
ump 140560
flying 140547
ベ@@ 140542
年@@ 140519
existing 140508
crossed 140502
라@@ 140476
secondary 140455
iter@@ 140421
taining 140393
AD@@ 140381
zehn 140361
thi@@ 140334
ido 140331
seul 140304
tour@@ 140269
aine 140267
1869 140265
predic@@ 140265
＝ 140254
anza 140253
meses 140226
z-@@ 140221
ubicado 140153
ox@@ 140149
mort@@ 140146
(), 140135
organizations 140132
behoort 140130
resulting 140094
nazionale 140079
respect 140068
développement 140067
Country 140055
interested 140055
自 140051
aer@@ 140050
stic 140044
ehemaligen 140041
asa 140032
comenzó 139986
muss 139975
communication 139971
erst@@ 139959
National@@ 139930
phần 139898
ode 139891
limit@@ 139885
aware 139864
pac@@ 139854
ско@@ 139852
Ray 139844
ud 139843
author@@ 139836
ints 139806
posizione 139789
60@@ 139780
Hof@@ 139775
表 139758
Magazine 139746
lik@@ 139737
花 139724
Bes@@ 139710
ois 139696
vier@@ 139689
Supreme 139681
ols 139672
Brazil 139645
remporte 139632
inos 139611
waited 139597
starts 139590
Го@@ 139555
镇 139519
три@@ 139517
Vic@@ 139492
new@@ 139460
イ 139450
disease 139444
terrängen 139419
ı 139405
heavily 139394
Depuis 139386
reports 139380
joue 139360
desk 139355
personnel 139350
Jahres 139343
dir 139331
vin 139317
succeeded 139306
bly 139304
rank 139262
Moore 139257
ت 139238
gebruikt 139235
totale 139161
ين 139160
electric 139145
participe 139139
条 139134
Project 139133
ader 139101
tiếng 139099
opportunity 139095
kurz 139093
ピ@@ 139052
十 139051
oi@@ 139041
相 139031
wet 139010
connection 138980
programma 138978
edit@@ 138967
nivel 138963
frame 138958
ческие 138944
Wel@@ 138934
ive 138919
cantante 138907
والم@@ 138900
Gordon 138899
commence 138888
steel 138877
uje 138860
foot@@ 138825
Sri 138823
yw@@ 138810
lượng 138809
bow 138772
ca. 138769
tot@@ 138762
inspired 138722
花@@ 138706
卒業 138703
vä@@ 138697
owie 138668
ソ@@ 138615
ś@@ 138614
apartment 138589
35@@ 138571
More 138571
Over@@ 138566
Nederland 138534
Bredden 138532
advanced 138521
asing 138500
пред@@ 138488
Anh 138487
ление 138480
Entwicklung 138436
зна@@ 138428
nach@@ 138418
Allemagne 138396
Les@@ 138380
Poly@@ 138372
Da@@ 138369
broad@@ 138355
ruolo 138350
flat 138342
combin@@ 138333
tiva 138333
人民 138287
ями 138281
idi@@ 138279
dag@@ 138276
rado 138261
contemporary 138257
1500 138254
об 138254
epi@@ 138238
inizio 138192
ien 138153
wild 138128
образом 138119
institutions 138113
esempio 138107
Indonesien 138085
libre 138057
censo 138021
structures 138014
confi@@ 137998
đại 137988
アル@@ 137977
180 137974
literature 137972
justice 137961
anas 137934
Schweiz 137915
primeros 137911
То@@ 137901
any@@ 137899
ports 137892
Walker 137886
création 137881
gegenüber 137878
лу 137873
đêm 137865
dis 137859
Som@@ 137852
quel 137846
lagen 137820
sierpnia 137820
stelle 137774
x-@@ 137772
employed 137764
virtu@@ 137749
진@@ 137744
gt 137735
owski 137728
Today 137723
美国 137711
파@@ 137696
incorpor@@ 137693
カ 137690
Musik 137677
結 137676
Ken@@ 137655
background 137652
creating 137632
rail 137631
oldest 137609
حسب 137607
unknown 137582
ime 137554
計画 137537
되어 137529
sten@@ 137525
리 137519
bekend 137515
ほか 137514
habe 137511
cancer 137509
戦争 137506
bằng 137498
hs 137489
Segunda 137471
門 137459
dienst 137415
dale 137412
А 137411
tropical 137403
/@@ 137394
learning 137380
num 137330
gens 137281
font 137278
bos@@ 137266
thro@@ 137226
maggiore 137223
roads 137215
nim 137213
Coupe 137200
bab@@ 137198
ob 137194
trước 137190
Zur 137172
Höhe 137162
дов 137152
catch 137128
determin@@ 137109
cả 137102
木@@ 137102
вала 137082
teatro 137080
rab@@ 137074
opposite 137068
trường 137062
Management 137053
nin@@ 137049
lipca 137026
shop 137017
経 137017
ancy 136996
dando 136992
sweet 136984
deleg@@ 136972
лишь 136962
Regierung 136960
dev@@ 136947
Н. 136947
twenty-@@ 136936
gebiet 136931
非 136911
vering 136897
onn@@ 136892
flow 136874
shall 136864
ners 136862
tia 136856
quasi 136852
Trong 136846
110 136830
indic@@ 136824
Head 136819
Rap@@ 136812
hey 136759
Maz@@ 136750
Burg 136741
伊@@ 136739
kreeg 136733
airport 136731
directeur 136723
dern 136722
Swedish 136692
folgte 136689
09 136683
apparently 136652
chức 136650
光@@ 136613
적인 136587
learn 136578
tutte 136538
acts 136532
tendo 136532
6.@@ 136508
miejscowość 136486
côté 136478
うち 136465
ا 136459
regione 136418
경@@ 136406
Население 136399
anth@@ 136394
headquarters 136364
magic 136361
växter 136347
rij@@ 136332
科@@ 136332
نا@@ 136323
amiento 136305
elt 136295
Sem@@ 136277
miasta 136267
attempted 136221
depen@@ 136216
oggi 136208
comment@@ 136188
재@@ 136179
второй 136173
maakte 136171
kle@@ 136154
вается 136138
algunas 136075
versión 136065
exchange 136061
kie 136060
farm 136057
pass@@ 136053
toen 136052
从 136048
relatively 136023
finalmente 135996
aste 135994
rencontre 135993
versione 135958
esc@@ 135936
sighed 135932
bird 135896
class@@ 135871
Philip 135861
worry 135853
sell 135847
IX 135841
kil@@ 135814
Di 135795
well-@@ 135789
doc@@ 135747
atu@@ 135740
dzi@@ 135740
estim@@ 135737
ска 135731
dere 135721
Houston 135720
Iowa 135718
Polski 135687
ock@@ 135682
violence 135669
guest 135667
febbraio 135655
rằng 135650
組織 135588
mà 135577
vehicle 135576
frequently 135563
Frankfurt 135545
defense 135545
composition 135526
Community 135498
achieved 135464
zahlreiche 135457
owane 135449
кар@@ 135442
Bevölkerung 135437
Tokyo 135415
americano 135405
技術 135369
doch 135318
capable 135303
父 135301
Dre@@ 135299
Hay@@ 135275
cost@@ 135273
ان@@ 135255
no-@@ 135250
ome 135237
aide 135220
Musik@@ 135219
стали 135217
joint 135203
daily 135168
hợp 135157
ration 135148
Welt 135143
copies 135143
obtained 135139
kop@@ 135103
自身 135102
eit 135081
injury 135081
Miami 135063
sian 135053
loi 135048
영@@ 135034
bec@@ 135028
70@@ 135025
собой 135022
werken 135012
autor 135009
burn 135006
tienen 134994
conserv@@ 134986
hers 134979
Dan 134955
rob@@ 134954
тах 134943
pow@@ 134925
locked 134924
cambio 134921
建設 134919
群 134901
Ри@@ 134875
kids 134842
finding 134821
vest@@ 134813
dinner 134787
human@@ 134781
الأ@@ 134729
ejemplo 134713
Canal 134672
Kevin 134635
ierten 134598
raz 134592
anterior 134501
gain 134495
arten 134493
другие 134485
Al-@@ 134457
dernière 134457
Microsoft 134456
シュ@@ 134454
kulle 134451
gene 134423
Pop@@ 134405
rel 134394
camera 134384
scientific 134364
cannot 134336
supply 134335
种 134302
Sak@@ 134297
二@@ 134292
rou@@ 134247
ulation 134217
Ве@@ 134207
Cop@@ 134206
井 134189
街 134189
neither 134179
uz@@ 134170
AB@@ 134163
rang 134162
selling 134137
officials 134131
hem@@ 134121
favor@@ 134084
inus 134055
signal 134043
Out 134028
cau@@ 134028
行@@ 134026
スト 134018
What 134010
ч 134007
Up 133975
République 133962
visited 133952
До@@ 133948
check 133940
Internacional 133927
гор@@ 133921
자 133910
expansion 133890
alia 133881
ム 133877
設立 133871
abol@@ 133865
Rei@@ 133862
Among 133838
R-@@ 133833
1859 133804
江 133803
kam@@ 133788
isten 133759
demonstr@@ 133758
eland 133751
chte 133743
missed 133741
XVII 133737
сло@@ 133729
Rus@@ 133716
highway 133710
environment 133701
strange 133691
quelle 133690
darunter 133688
fort@@ 133678
enberg 133645
diversi 133628
tener 133617
里@@ 133608
Hier 133605
ены 133593
shar@@ 133582
道@@ 133576
ailleurs 133575
slid 133546
shortly 133522
دي@@ 133514
Hitler 133503
hr@@ 133494
analy@@ 133468
déjà 133465
budget 133421
milieu 133404
Maryland 133338
dens 133329
calcul@@ 133294
isol@@ 133241
屋 133240
своих 133232
besonders 133217
oms 133205
restaurant 133204
Bad@@ 133200
maakt 133193
위@@ 133187
trained 133172
weil 133153
アルバム 133141
oked 133121
ché 133095
único 133082
aal 133060
sop@@ 133011
Co 133008
invited 132994
opposed 132960
sson 132956
sters 132956
Для 132954
prevent 132938
wojny 132938
partidos 132906
sowohl 132901
近 132888
växtlighet 132886
asks 132879
otto 132848
тер@@ 132843
części 132816
anz@@ 132803
mention 132792
08 132784
prepared 132775
aned 132771
80@@ 132762
vara 132735
вы 132725
oria 132698
kissed 132648
Кон@@ 132646
Vill@@ 132645
Maj@@ 132641
ê@@ 132634
veces 132629
laugh 132595
gray 132513
società 132506
ander@@ 132503
変更 132474
ancienne 132467
aliz@@ 132464
bergig 132455
terme 132450
lay@@ 132423
Fach@@ 132407
pilot 132387
sol 132382
kwietnia 132359
ñ@@ 132347
ち 132342
ray 132284
信 132277
isch@@ 132276
judge 132257
edizione 132255
authorities 132239
,@@ 132219
nhận 132188
gift 132183
conflict 132168
Да@@ 132155
MP@@ 132154
político 132150
治 132142
自由 132130
proved 132118
seizoen 132052
ABC 132049
perform 132045
fli@@ 132039
Według 132038
ust@@ 132037
mie 132017
uren 131986
rispetto 131980
armed 131975
reaction 131975
asi 131974
Emperor 131961
arrested 131938
род 131936
ket@@ 131878
verschiedene 131867
الج@@ 131861
zeit 131855
에는 131846
ба 131832
abandoned 131831
situato 131817
cuales 131815
iron 131806
điều 131801
Sierra 131777
Earl 131763
ペ@@ 131758
oti@@ 131731
одной 131702
scri@@ 131700
Pos@@ 131683
devant 131653
theme 131640
Его 131624
urban 131622
通@@ 131620
ogen@@ 131617
去 131562
línea 131541
âge 131539
Era 131503
possono 131503
Doctor 131492
critic@@ 131487
anglais 131463
leben 131453
Christ 131413
続 131397
nuclear 131381
pack 131378
Casa 131355
стро@@ 131339
ド 131303
upp 131275
XIII 131265
oeste 131259
Ди@@ 131255
gồm 131236
formal 131221
來@@ 131221
materials 131205
hội 131178
hou@@ 131161
sla@@ 131154
sina 131115
law@@ 131080
bel 131066
chia 131055
apping 131045
centuries 131042
tar 131028
양@@ 131021
popul@@ 131009
рами 130980
altern@@ 130965
フ 130957
將@@ 130953
очень 130907
dae 130888
ポ@@ 130775
アン@@ 130771
alty 130739
display 130736
Bruce 130731
Bos@@ 130711
courses 130709
encia 130669
lor@@ 130668
tinha 130662
tích 130630
S.@@ 130548
passes 130548
spesso 130545
sob@@ 130508
Ти@@ 130484
호@@ 130452
Son@@ 130434
carriera 130421
製 130408
fun 130406
個 130395
producción 130391
controlled 130354
ine@@ 130350
Bedeutung 130348
Fame 130348
passe 130332
zeigt 130331
Krieg 130288
diente 130283
同時 130279
pulling 130264
ك 130254
Bis@@ 130252
lem@@ 130226
veröffentlicht 130219
VIII 130212
30. 130188
Leipzig 130144
kel 130141
fire@@ 130131
entitled 130129
lau@@ 130084
بلغ 130071
het@@ 130069
Klimatet 130067
laatste 130016
AC@@ 130013
briefly 129998
avano 129978
details 129973
PA 129958
С. 129946
Black@@ 129926
好 129918
Studio 129913
drug 129904
Ah@@ 129901
price 129888
teve 129886
height 129885
高等 129879
AP 129875
rid@@ 129851
07 129836
ж 129824
男 129820
journ@@ 129808
joining 129796
Bell 129794
Seg@@ 129760
Natur@@ 129752
mieszkańców 129727
seg@@ 129715
worse 129673
dot@@ 129669
результате 129665
billion 129664
roman@@ 129659
Lev@@ 129657
цией 129653
Ц@@ 129641
thường 129596
sjön 129574
beispielsweise 129569
hung 129545
comedy 129532
yo 129532
eer 129530
ologist 129524
chủ 129516
谷 129490
Afghanistan 129489
erade 129481
gehören 129479
deriv@@ 129466
Loc@@ 129461
volte 129452
danach 129446
chairman 129429
Air@@ 129414
開 129410
showing 129398
完成 129394
RE@@ 129390
포@@ 129367
atura 129348
invent@@ 129285
achi@@ 129278
daha 129263
美國 129235
イン@@ 129228
produit 129224
theater 129220
Oper@@ 129215
Marco 129207
ky@@ 129202
例 129174
regions 129170
trung 129170
MS 129166
scar@@ 129163
long-@@ 129143
approved 129124
一方 129075
promise 129068
et-@@ 129056
04 129041
unded 129027
fest 129023
wind@@ 129001
dream 129000
900 128992
英 128979
吉@@ 128964
touched 128960
Werk 128957
lö@@ 128946
된다 128929
Украины 128892
ministre 128889
Kentucky 128872
Ny@@ 128867
oner 128862
hacer 128861
ids 128858
Ł@@ 128857
asking 128850
Cape 128835
puesto 128827
宗 128821
hausen 128787
чной 128787
logo 128784
Federation 128780
あ@@ 128738
tains 128734
wine 128734
Del 128677
ers@@ 128658
falling 128656
котором 128655
By@@ 128635
codice 128603
ize 128598
fan 128589
pesar 128577
illo 128562
د 128560
tiny 128550
Hermann 128543
清@@ 128538
Johnny 128523
Zum 128491
Jane 128467
giải 128398
eerde 128381
attempts 128347
工作 128332
Philippe 128329
los@@ 128277
north-@@ 128277
位于 128264
terror@@ 128230
政 128222
Jar@@ 128206
朝 128195
target 128186
чего 128174
causing 128170
stehen 128150
dering 128120
ishing 128107
Oregon 128103
عشر 128102
路線 128102
relation 128100
旧 128100
temperature 128048
學@@ 128001
Regional 127995
wondered 127987
そして 127973
ön 127960
fron@@ 127943
basic 127917
carrying 127902
Sunday 127898
Sul@@ 127894
contrac@@ 127886
listen 127870
NS@@ 127863
stessa 127849
hil@@ 127846
武@@ 127839
aría 127835
bility 127827
ке@@ 127824
ange@@ 127819
一個@@ 127810
卡@@ 127796
以外 127754
運動 127754
8,@@ 127740
ック 127732
ashed 127707
millones 127705
inning 127672
uns 127668
bat 127658
ب 127625
Spiel 127623
Ryan 127616
Phil@@ 127615
amp 127593
nica 127587
元@@ 127575
Amerikaanse 127568
ale@@ 127566
französischen 127559
tied 127555
wieś 127555
eria 127543
ор@@ 127537
accor@@ 127502
Instituto 127494
ature 127485
sous-@@ 127482
MP 127479
aniu 127434
Frauen 127410
尼@@ 127409
rent 127399
코@@ 127399
parfois 127378
ety 127369
spor@@ 127369
DNA 127362
Your 127354
shrugged 127347
trình 127337
lap 127326
exist 127307
130 127297
lên 127286
ier 127270
politics 127244
diver@@ 127240
送 127231
Insel 127201
X-@@ 127188
打 127172
다 127171
ual 127167
retour 127157
Champions 127141
entry 127115
phố 127115
leri 127112
4th 127104
除 127103
命 127089
tos 127055
ي 127053
ih@@ 127048
lad@@ 127043
visible 127042
マ 127042
Medical 126980
적 126977
yc@@ 126967
чный 126959
Schw@@ 126953
tham 126945
breaking 126909
stes 126909
innen 126885
gleichen 126876
crow@@ 126851
別 126839
employ@@ 126820
sull' 126820
estar 126808
autor@@ 126806
tel 126796
file 126786
inas 126772
gaz@@ 126734
listopada 126715
reference 126712
wat@@ 126701
olika 126698
الا@@ 126680
ond 126678
tiếp 126660
às 126643
dle 126637
doubt 126637
py@@ 126595
gall@@ 126581
тных 126579
explain 126575
mou@@ 126571
blo@@ 126533
unding 126524
Bah@@ 126502
sui 126463
ność 126462
رو@@ 126429
Các 126375
ット 126372
05 126366
Ligue 126366
governor 126360
Sport 126352
juego 126339
ees 126330
contained 126302
ā 126299
目的 126296
iger 126293
bem 126285
giorno 126275
aring 126258
clean 126241
espécie 126233
isse 126228
Od@@ 126219
Jimmy 126217
Et@@ 126215
spielen 126206
thống 126176
seri@@ 126156
ツ@@ 126144
1950s 126143
lev@@ 126143
Netherlands 126138
dor 126124
aut 126084
사 126080
meisten 126070
metres 126068
О 126057
esch@@ 126053
travaux 126044
ān 126026
決定 126014
età 126008
speelde 125997
aro 125975
Luft@@ 125966
sal 125941
jes 125932
struck 125900
admitted 125896
uncle 125831
поло@@ 125828
Gam@@ 125797
Space 125780
одним 125757
格@@ 125750
始め 125738
grown 125729
गया 125729
dium 125719
cool 125683
00@@ 125646
inglés 125638
closely 125624
parti@@ 125621
Orchestra 125605
performing 125602
Jakarta 125592
mente 125588
四@@ 125585
linea 125581
cinema 125572
produzione 125568
тной 125546
類 125546
bac@@ 125508
sar 125502
voir 125502
chain 125498
ńskiego 125482
कि 125482
ций 125479
posteriormente 125459
edad 125437
合@@ 125436
beaucoup 125426
Eng@@ 125416
間@@ 125408
finds 125382
över@@ 125364
بو@@ 125360
All-@@ 125353
Sitz 125353
light@@ 125346
theatre 125330
Lab@@ 125329
вания 125303
21. 125288
session 125284
Gast@@ 125274
handle 125272
Gabriel 125261
Meg@@ 125258
ением 125255
abord 125233
發 125223
Dur@@ 125209
年間 125141
plac@@ 125136
quarter 125134
machte 125121
Harvard 125111
dato 125107
lob@@ 125100
стра@@ 125092
теля 125080
construcción 125076
ces@@ 125056
observ@@ 125051
Free 125049
風 125045
commission 125040
protest@@ 125037
王@@ 125034
Giuseppe 125033
dagli 125031
sống 125030
anymore 125026
여@@ 125023
vehicles 125018
Television 125017
Nat@@ 125011
10.@@ 125004
assi@@ 125004
시 125000
nick 124999
bereich 124974
06 124962
сельского 124955
日) 124926
bướm 124913
很 124904
مدينة 124903
past@@ 124881
Mam@@ 124855
tera 124845
alleg@@ 124818
persona 124811
sixth 124774
Rab@@ 124771
merged 124750
Res@@ 124737
villa 124732
Italie 124711
プロ 124699
переписи 124698
ald 124682
twelve 124682
Light 124657
advantage 124652
大き 124652
Alter 124643
お@@ 124630
nov@@ 124623
Between 124617
тор@@ 124612
hos 124606
Pad@@ 124588
ق 124584
Fahr@@ 124574
eira 124553
cualquier 124542
最終 124524
ener@@ 124519
sver@@ 124513
gent@@ 124507
funding 124484
Sweden 124455
lavoro 124432
black@@ 124429
йского 124429
Christmas 124425
đi 124418
Rh@@ 124410
owo 124360
Sig@@ 124354
hö@@ 124322
ettes 124315
Jorge 124307
ди 124304
revi@@ 124297
starring 124296
rep@@ 124287
く@@ 124287
offices 124240
sẽ 124237
ケ@@ 124200
conc@@ 124189
自動 124186
ô@@ 124183
所有 124169
speech 124166
論 124148
бер@@ 124144
vio 124140
arrondissement 124139
bringing 124138
mobile 124130
何 124118
terre 124104
Atlanta 124098
rond 124063
auteur 124052
sulle 124042
Frederick 124029
desarrollo 124028
tunnel 124012
Rol@@ 124001
lier 124001
Wood@@ 123998
ciones 123998
verschillende 123991
Americans 123989
fix@@ 123954
通り 123921
którym 123916
import@@ 123910
Alice 123899
Fort@@ 123887
diversos 123886
besuchte 123882
tent@@ 123870
macht 123863
Korean 123854
Пи@@ 123852
Hil@@ 123831
istas 123829
ote 123795
Cuba 123792
otherwise 123755
7.@@ 123743
1830 123742
owano 123734
teilweise 123719
界 123711
Bun@@ 123710
vielen 123696
direkt 123694
soprattutto 123686
én 123682
thousand 123675
resi@@ 123655
prot@@ 123646
Gemeinden 123633
resources 123623
siguientes 123616
とき 123592
negative 123586
zudem 123585
schw@@ 123561
fying 123557
journalist 123509
به 123459
ight 123449
Chil@@ 123429
extensive 123429
Several 123426
verk@@ 123424
kết 123418
öppet 123418
ecting 123390
Вы@@ 123367
Tol@@ 123350
nay 123328
År 123297
document@@ 123290
door@@ 123284
بي 123280
mechan@@ 123263
ency 123262
kamen 123259
Detroit 123254
architect 123247
XII 123237
tierra 123219
Fest@@ 123197
Philippines 123197
設計 123174
relative 123171
verse 123164
異な 123151
seulement 123148
当初 123146
ith 123116
카@@ 123113
origen 123102
anta 123096
Temple 123069
ref 123050
pi 123043
crisis 123041
kro@@ 123038
Est 123027
actress 123023
Jazz 123009
ele@@ 122998
Billy 122984
ları 122983
bez@@ 122974
mam@@ 122958
znajduje 122952
sword 122950
eigen 122945
NCAA 122937
sounded 122903
Sarah 122896
ental 122881
Ferdinand 122867
nau@@ 122863
dru@@ 122831
에서는 122781
internacional 122767
duty 122764
情報 122761
itas 122752
inom 122745
va@@ 122727
arrive 122711
与え 122707
Front 122694
dt 122685
Ukraine 122677
eerd 122677
cir@@ 122657
Band@@ 122653
Racing 122643
incident 122625
加 122622
plant@@ 122607
petite 122602
hof 122601
qualified 122582
zon@@ 122572
duo 122532
desp@@ 122524
trä@@ 122483
格 122471
XIV 122470
meister 122460
ento 122459
Premio 122458
evento 122447
Cul@@ 122441
Ari@@ 122417
米@@ 122406
бы@@ 122395
nummer 122394
disp@@ 122388
ز 122386
iting 122361
Lag@@ 122356
低 122341
Nelson 122329
liter@@ 122318
Alberto 122313
担当 122307
Mik@@ 122300
MI@@ 122289
ん@@ 122282
み@@ 122269
weather 122251
citizens 122237
saf@@ 122236
internet 122223
機関 122223
Primera 122221
布@@ 122220
öl@@ 122216
該@@ 122215
ø@@ 122202
Kelly 122200
190 122198
定@@ 122191
documents 122177
volgende 122171
receiving 122164
Schloss 122163
scène 122157
Cent@@ 122143
particulier 122139
statement 122131
rear 122117
Inc 122108
correc@@ 122098
Liverpool 122092
الن@@ 122072
波 122071
epoca 122070
miembros 122054
samma 122050
sản 122034
DJ 122019
ultima 121999
校 121992
ях 121952
understanding 121943
ał@@ 121941
advoc@@ 121916
critics 121900
動 121887
habían 121871
cad@@ 121870
isla 121842
wrapped 121837
Fel@@ 121832
льной 121831
containing 121812
Bowl 121798
kerk 121789
1857 121788
fired 121786
Teatro 121752
somewhere 121729
Ross 121722
Square 121721
processo 121715
eram 121685
lite 121669
patients 121657
25. 121656
nave 121652
revista 121647
toe 121643
Nick 121641
angry 121631
prä@@ 121623
sought 121621
안@@ 121595
→ 121579
erten 121548
s- 121536
ny@@ 121522
ą@@ 121518
관@@ 121517
制作 121505
Maurice 121504
CS@@ 121503
어 121482
ures 121473
гг. 121464
тра@@ 121463
像 121463
fall@@ 121432
Prize 121428
bled 121426
invasion 121420
pted 121420
mei 121413
кра@@ 121412
increasing 121395
loại 121377
opsis 121359
collaboration 121348
gelang 121331
ブ 121310
e.g. 121290
ье 121289
mul@@ 121288
posición 121275
道路 121274
ga@@ 121243
Kle@@ 121210
LA 121209
1840 121197
engineering 121190
agre@@ 121185
clar@@ 121179
Boys 121151
Mayor 121136
usual 121134
hir@@ 121131
XI 121127
canton 121110
zenia 121096
gemeinsam 121088
角 121085
経済 121082
vert@@ 121069
rebel@@ 121046
Boy 121045
lực 121026
Лу@@ 121020
mitt@@ 121013
wooden 120992
bell@@ 120963
sco@@ 120960
już 120952
Come 120914
Ré@@ 120904
день 120885
ances 120866
nich 120821
01 120818
вший 120783
sorti 120778
IC 120777
methods 120756
Opera 120754
وكان 120717
ène 120704
交通 120681
Porto 120680
i.e. 120642
seconde 120640
拉 120637
isi 120633
20-@@ 120630
cơ 120630
fi 120620
origin 120599
reti@@ 120596
consisted 120588
Chor@@ 120581
agn@@ 120581
Российской 120563
مت@@ 120559
Dave 120557
stein@@ 120551
ты@@ 120549
uch@@ 120517
León 120511
daher 120500
cler@@ 120499
Morgan 120496
ロー@@ 120494
Bag@@ 120488
llegó 120478
льных 120453
divenne 120450
及び 120440
bor 120437
gy 120433
solution 120418
ग 120410
massive 120405
uro 120373
Franse 120364
師 120337
blu@@ 120333
schloss 120323
max 120322
sections 120321
Long@@ 120305
gently 120302
選挙 120287
コン@@ 120272
形成 120250
イン 120240
credited 120236
zak@@ 120233
flor@@ 120230
announ@@ 120205
mesi 120199
sag@@ 120196
dit@@ 120195
folk 120191
nika 120160
ض@@ 120158
サン@@ 120145
uy@@ 120139
hit@@ 120119
communauté 120116
лю@@ 120104
João 120093
ته 120075
단@@ 120064
towns 120057
impossible 120043
schrieb 120043
surtout 120043
parmi 119994
acqu@@ 119980
cent 119979
Był 119973
przed 119972
12月 119967
出版 119943
Studies 119930
ß 119920
tas 119918
ड 119881
Österreich 119873
страны 119864
ihnen 119856
painted 119851
subsequent 119847
ワ@@ 119836
sieben 119831
uomo 119827
Operation 119801
desire 119791
may@@ 119785
ennes 119776
extension 119751
iller 119749
ний 119726
因此 119725
histor@@ 119723
truck 119718
Jordan 119717
建 119706
reco@@ 119687
dating 119651
Dy@@ 119643
utilisé 119622
巴@@ 119613
rical 119610
petit 119607
lot@@ 119586
mates 119586
コ 119584
ющий 119538
CO 119535
Ten 119517
partire 119514
diện 119501
éxito 119468
convirtió 119430
icamente 119425
aker 119408
比@@ 119406
queen 119388
aging 119377
さ@@ 119367
mère 119360
ша 119331
bedroom 119319
Å@@ 119300
LP 119290
田@@ 119279
hinaus 119262
geh@@ 119259
意味 119258
estudio 119256
Jacob 119243
교@@ 119243
significa 119211
aves 119203
Alabama 119181
publicado 119175
deve 119173
initi@@ 119171
ر 119167
ению 119157
令 119152
concerned 119151
hoặc 119149
grav@@ 119139
ă@@ 119139
SS@@ 119136
abilities 119136
knees 119122
даже 119119
oren 119101
squad 119096
ME@@ 119095
Rück@@ 119086
بعض 119084
zuvor 119072
Cuando 119034
bas 119033
Arena 119023
Sti@@ 119014
мер@@ 119010
lutego 119009
ears 119002
치@@ 119001
центр 118991
especialmente 118982
ss@@ 118965
dangerous 118959
付 118952
Kennedy 118931
IT@@ 118920
чных 118889
stuff 118883
tylko 118876
便 118866
kes@@ 118858
rée 118845
dollars 118830
3000 118823
Sho@@ 118814
Beg@@ 118792
multi-@@ 118785
つ@@ 118765
начала 118749
Му@@ 118726
支持 118719
popolazione 118702
hang 118682
ーン 118667
declar@@ 118660
utes 118658
chanson 118657
economy 118646
édition 118643
кан@@ 118633
link 118626
angel@@ 118624
تعداد 118618
lied 118616
1856 118613
堂 118611
未 118591
如 118587
Charlie 118572
cứng 118571
stellt 118567
مو@@ 118556
especies 118555
ases 118550
passenger 118538
spec@@ 118517
過@@ 118511
busklandskap 118492
enf@@ 118479
Tim 118476
She@@ 118470
departamento 118453
Rugby 118411
9,@@ 118403
Lawrence 118396
comuna 118379
fleet 118338
difference 118304
address 118287
古 118266
Tra 118265
parallel 118263
1858 118260
eh 118255
één 118255
ノ 118248
可@@ 118246
Mot@@ 118243
Kirchen@@ 118226
議員 118194
oz@@ 118188
miejscu 118165
incluso 118156
wy 118133
Village 118131
Jest 118123
тели 118117
tique 118113
lio 118110
sad@@ 118100
六 118094
Micro@@ 118083
Div@@ 118081
attraverso 118074
befinden 118050
assim 118038
Ses 118032
Sommer 118031
él@@ 118025
cis@@ 117996
토@@ 117971
hoped 117957
Roy 117941
Mou@@ 117940
Cant@@ 117927
dence 117920
ester 117898
grow 117896
owana 117881
hired 117874
وهي 117874
aside 117873
Einzel@@ 117867
teur 117867
ffs 117862
fram@@ 117861
Presidente 117855
asser@@ 117843
inch 117836
acja 117830
Cependant 117819
Indi@@ 117815
trust@@ 117809
yed 117808
Haw@@ 117794
estudios 117776
所@@ 117766
produc@@ 117750
Đ@@ 117746
同様 117740
genutzt 117727
先 117718
certainly 117700
comfortable 117700
Stor@@ 117690
dered 117682
somehow 117677
Lem@@ 117667
伴 117655
森 117652
車@@ 117641
爾 117628
Wall@@ 117621
течение 117620
skulle 117605
Mutter 117596
objet 117576
1800 117574
möglich 117574
cheek 117573
Kos@@ 117571
assumed 117565
Grant 117561
M.@@ 117559
Parti 117546
explor@@ 117543
ré 117519
kunde 117508
eigene 117501
gọi 117469
cla@@ 117466
bestaat 117454
Vin@@ 117439
skills 117433
Ric@@ 117423
elf 117411
하게 117408
About 117403
роль 117386
K-@@ 117368
org@@ 117357
Hugo 117341
Strecke 117306
densidad 117290
Ant@@ 117283
ect@@ 117280
º 117257
Charlotte 117255
fútbol 117240
obtient 117228
chy 117226
führen 117225
świata 117221
đ@@ 117211
milit@@ 117189
única 117186
views 117177
routes 117170
Tau@@ 117163
Hus@@ 117141
Only 117126
founding 117098
gio 117091
viel 117082
nit@@ 117075
Mississippi 117069
الب@@ 117044
合衆 116987
поселения 116936
harmon@@ 116931
1855 116930
exclu@@ 116916
stell@@ 116916
auto@@ 116889
bass 116880
八@@ 116860
真@@ 116856
скими 116850
compet@@ 116842
تحت 116841
Fro@@ 116836
Italien 116835
12.@@ 116830
160 116780
darkness 116733
spre@@ 116728
Ни@@ 116720
God@@ 116702
Adams 116701
äng@@ 116683
代@@ 116670
لها 116666
halten 116641
pale 116634
aggio 116616
pierwszy 116616
identity 116592
eff@@ 116588
Spieler 116583
hombres 116583
ание 116580
aar 116576
standards 116573
Matt 116561
narrow 116558
Zeit@@ 116555
emig@@ 116536
-T@@ 116531
特に 116516
Lyon 116500
Oklahoma 116499
1849 116496
persone 116485
Lebens@@ 116480
在@@ 116469
statue 116459
conduc@@ 116453
白 116451
ität 116440
outras 116436
вен@@ 116433
introduction 116421
rement 116419
porta 116412
Georges 116401
amar@@ 116383
亞@@ 116370
Hon 116369
rei@@ 116369
appointment 116368
break@@ 116341
wore 116334
gehen 116308
figura 116301
Tat@@ 116274
punkt 116274
rés 116270
puntos 116264
tế 116256
sharp 116237
prove 116228
que@@ 116217
方式 116217
сов 116214
смерти 116205
tries 116185
finishing 116171
hearing 116160
宮 116153
Roberto 116151
Но 116148
alist@@ 116126
Deb@@ 116123
yl 116123
drawing 116113
Broadway 116110
Liberal 116105
Berliner 116103
vardır 116090
gebracht 116065
الف@@ 116064
Christopher 116038
область 116020
kov 116014
И 115989
streets 115982
experienced 115978
noise 115976
häufig 115966
bataille 115961
handelt 115955
converted 115943
educational 115941
shaped 115926
ER@@ 115921
eze 115921
illustr@@ 115907
wraz 115905
tons 115899
transport@@ 115895
Military 115893
resultado 115890
mari@@ 115888
locale 115868
بة 115866
dge 115865
Barbara 115840
Imperial 115836
Had@@ 115835
quartier 115823
أكثر 115807
represent 115804
kraju 115800
start@@ 115787
Benjamin 115780
singing 115739
letzte 115738
Dé@@ 115734
livello 115724
Ret@@ 115716
aurait 115691
mic@@ 115670
surname 115665
dressed 115663
diretto 115656
Singapore 115637
명@@ 115610
fav@@ 115580
1854 115568
tiv@@ 115556
night@@ 115549
hide 115542
cat 115525
べ 115521
oe 115517
採用 115469
dung 115467
aco 115411
einigen 115401
Pul@@ 115393
女子 115385
disco@@ 115383
liches 115381
quietly 115357
販売 115348
users 115343
lac 115323
ý 115322
confer@@ 115315
stam@@ 115305
bois 115299
oth 115297
fill 115278
enligt 115276
Naval 115261
hop@@ 115251
ज 115246
Russell 115230
następnie 115220
kleinen 115202
才 115192
Гу@@ 115183
完全 115172
それぞれ 115171
monument 115154
Margaret 115142
尔 115137
nhiên 115112
Christ@@ 115110
Commonwealth 115096
provincial 115086
poem 115060
understood 115059
ья 115052
Adolf 115042
applications 115041
문@@ 115028
garden 115019
absence 115001
evi@@ 114986
ズ 114982
Mach@@ 114980
verband 114980
launch 114975
terug 114970
assen 114969
ede 114966
Pres@@ 114964
đoàn 114952
Good 114941
Stanley 114926
ões 114903
faces 114884
putting 114878
ث@@ 114878
эн@@ 114876
diễn 114875
Harris 114858
Danach 114853
eda 114853
prise 114844
Li 114824
rivière 114815
mos 114811
derived 114807
charges 114805
الق@@ 114801
différents 114777
alg@@ 114736
of-@@ 114733
之一 114717
stadium 114716
icians 114708
tail 114661
1,5 114651
TV@@ 114646
prepar@@ 114642
方面 114638
być 114604
Karriere 114602
dwa 114601
concern 114600
honor@@ 114575
Dublin 114571
weit 114563
unda 114526
ober@@ 114522
كو@@ 114516
ott 114506
Stato 114497
flag@@ 114465
sman 114465
impl@@ 114455
Lig@@ 114450
独立 114441
Milan 114434
helping 114427
期間 114419
south-@@ 114390
bow@@ 114389
história 114381
unless 114380
hits 114378
worldwide 114346
tens 114334
danger 114328
charged 114307
notice 114305
autour 114293
og 114293
conqu@@ 114269
czy@@ 114269
état 114260
ację 114256
chor@@ 114250
modelo 114250
map 114247
valley 114241
22. 114238
grandi 114217
Flor@@ 114213
omdat 114190
worried 114175
producing 114166
fres@@ 114154
英@@ 114130
構成 114124
pole 114120
tig@@ 114120
diversas 114118
folgende 114110
округа 114095
Hei@@ 114092
engaged 114087
composer 114065
esia 114061
Not 114034
PS@@ 114021
ples 114017
начал 114007
非常 113931
arch 113927
тный 113923
num@@ 113914
33@@ 113911
cadre 113893
Cel@@ 113885
Pháp 113864
oppervlakte 113833
Montreal 113816
12-@@ 113813
expres@@ 113810
بها 113810
developing 113809
crazy 113801
фильм 113801
ides 113795
acuerdo 113781
visto 113777
林@@ 113764
etwas 113751
ски 113692
gotten 113665
circuit 113663
swi@@ 113658
레@@ 113657
problemas 113650
縣 113642
今 113637
Vertrag 113635
rival 113627
absor@@ 113624
Franklin 113613
bắt 113590
frère 113585
komen 113574
rok 113571
której 113560
regarded 113546
即 113525
đối 113522
rum 113521
afternoon 113505
グループ 113492
onie 113490
列 113486
22@@ 113485
consecutive 113468
intelligence 113468
عبد 113466
zwei@@ 113458
Museo 113452
moments 113443
Hills 113435
반@@ 113427
grounds 113380
survived 113379
ordin@@ 113366
proyecto 113364
affected 113357
spir@@ 113339
artista 113326
dun@@ 113322
raz@@ 113298
Du 113288
sociale 113275
surrounded 113270
lis@@ 113269
ultimately 113251
scheduled 113236
вался 113212
recherche 113191
collabor@@ 113189
ゴ@@ 113187
pure 113181
走 113173
episodio 113158
peri@@ 113153
描 113152
đánh 113151
Mut@@ 113149
anh 113142
observed 113117
الإ@@ 113105
influenced 113093
Mand@@ 113092
çok 113081
zusammen@@ 113080
Express 113074
列車 113058
functions 113051
攻撃 113051
лё@@ 113047
Politiker 113045
créé 113045
AA 113044
lance 113041
reb@@ 113028
École 113021
entstanden 113011
coordin@@ 112988
flowers 112978
枚 112969
bao 112968
могут 112930
cependant 112927
kein 112925
tag@@ 112920
電 112915
vennero 112910
regio 112890
Hau@@ 112885
pent@@ 112873
ー@@ 112859
Nam@@ 112858
protein 112838
E-@@ 112835
Vincent 112834
mình 112826
réseau 112823
Services 112818
ule 112811
에@@ 112809
vì 112775
11.@@ 112767
Fire 112758
willing 112749
consider 112735
moderne 112733
Reihe 112723
investigation 112717
ären 112713
ध 112690
retirement 112689
SO@@ 112686
ラー 112683
た@@ 112680
marks 112667
Songs 112661
Medal 112656
назначен 112650
ect 112638
時期 112626
beach 112622
ologia 112622
gründete 112606
내@@ 112583
pocket 112575
abile 112572
genere 112566
locations 112556
decades 112548
ня@@ 112530
US-@@ 112523
lässt 112519
ellas 112516
erd 112510
rush 112474
throw 112465
flera 112452
海軍 112450
drove 112440
ズ@@ 112433
ty-@@ 112429
bone 112418
Com 112410
contributed 112407
Kultur@@ 112397
ツ 112393
J.@@ 112365
Studium 112358
udział 112338
Reich 112335
schaften 112335
90@@ 112313
maken 112310
ファ@@ 112308
9月 112306
ede@@ 112296
ح 112296
maintained 112295
allora 112284
buy 112245
conclu@@ 112242
Sant@@ 112239
bọ 112233
spiel 112230
funds 112196
AT 112190
Duitse 112179
製造 112178
attached 112174
accept 112137
construc@@ 112133
ignor@@ 112133
Ear@@ 112096
jamais 112096
gon 112078
Best@@ 112058
Connecticut 112056
나 112050
terrain 112028
allemand 112019
fuel 112007
湖 111984
erk@@ 111962
failure 111936
nes@@ 111925
Arch@@ 111919
dz@@ 111916
properties 111900
município 111899
vis 111890
plupart 111886
Will 111884
лан@@ 111877
inci@@ 111867
军 111865
kru@@ 111859
których 111841
公開 111841
Gan@@ 111816
educated 111815
Armee 111809
lyrics 111806
causes 111778
threat 111776
axe 111770
meno 111769
Kaiser 111733
registered 111724
erreicht 111714
Nik@@ 111707
Zwischen 111696
円 111691
Ky@@ 111688
DE@@ 111675
سكانها 111655
américaine 111650
oes 111631
Class 111614
kas@@ 111610
ceremony 111608
regarding 111592
24. 111578
object 111568
kr@@ 111564
suivante 111559
Dean 111557
デビュー 111541
documentary 111534
novo 111524
tras@@ 111514
IC@@ 111507
Plan 111507
Zo@@ 111505
specifically 111498
基@@ 111482
nunca 111475
is-@@ 111470
oud 111470
Avec 111465
tore 111460
пер@@ 111452
tend 111451
enkele 111443
refers 111440
ith@@ 111399
lid 111386
Reichs@@ 111353
5,000 111348
fuera 111325
wonder 111325
chant 111314
ほど 111246
rice 111237
ographic 111234
الولايات 111208
shock 111207
occupation 111206
regime 111185
ique 111160
末 111127
softly 111126
opere 111106
Claude 111105
spoken 111101
technical 111094
Đức 111083
supporting 111073
ever@@ 111063
Medi@@ 111060
DS 111005
Din@@ 111005
Mitglieder 111005
尔@@ 110972
對 110970
Andy 110969
Oc@@ 110967
qué 110947
spend 110942
著 110923
scenes 110915
线 110913
28. 110905
共和 110900
Kent 110895
jeden 110879
Vereinigten 110869
調査 110866
1852 110861
desi@@ 110861
Pau@@ 110859
pack@@ 110857
bei@@ 110852
Kab@@ 110846
Sound 110843
deutlich 110842
Dance 110840
10,@@ 110835
donna 110833
方法 110829
TA 110824
кор@@ 110822
coat 110818
langue 110811
Mexican 110783
ष 110776
7月 110774
plate 110732
內@@ 110731
Moscow 110722
contribu@@ 110714
stupid 110714
Artens 110704
па 110679
Pope 110669
tom 110663
加入 110663
Arbeit@@ 110661
occur 110656
基本 110650
Jason 110647
Norwegian 110642
vice 110634
1851 110618
gara 110616
participation 110614
Human 110609
occurs 110591
ceux 110585
Camp@@ 110581
Lac@@ 110573
IS 110571
يت@@ 110567
Ру@@ 110565
Ша@@ 110561
argued 110556
Building 110517
tính 110505
ヴィ@@ 110497
機@@ 110491
ск@@ 110469
estava 110457
representing 110445
zwar 110445
writers 110444
Engineering 110436
Brigade 110425
Prior 110424
alte 110404
sees 110400
Stelle 110381
borough 110370
huis 110362
فا@@ 110351
Warner 110343
orient@@ 110342
Native 110339
製作 110330
Đại 110325
-1 110318
телей 110317
televisión 110315
свой 110314
Pom@@ 110306
Cleveland 110303
Muslim 110298
ú 110285
Donald 110281
quyền 110279
å 110274
m-@@ 110267
incorporated 110262
contest@@ 110232
mujeres 110229
Bom@@ 110227
lerin 110222
вают 110206
Herbert 110203
tory 110189
03 110185
ходе 110176
tuttavia 110155
owanie 110151
23. 110150
〜 110150
opinion 110147
tomorrow 110146
ющих 110141
establishment 110134
Alle 110127
té 110125
nachdem 110123
Design 110122
Zijn 110122
ord 110121
greatest 110114
altra 110111
стов 110098
vụ 110093
长 110091
tam 110089
Places 110077
sty 110074
fresh 110059
pages 110056
являются 110036
Sus 110026
quer@@ 110018
羅@@ 110016
lut@@ 110014
系列 110011
pier@@ 110005
rom@@ 109991
Université 109988
tandis 109981
개@@ 109979
GmbH 109969
USS 109968
changing 109966
8月 109957
extremely 109950
ª 109950
fixed 109943
appar@@ 109939
Bruder 109932
owała 109931
Rod@@ 109929
attend 109928
Seattle 109903
fot@@ 109895
kach 109888
fonction 109871
owners 109862
francesa 109848
Kre@@ 109824
strike 109823
Milano 109811
sid@@ 109797
musicale 109782
льный 109780
Municipal 109748
IP 109745
groep 109742
Girl 109712
트@@ 109696
10月 109690
gibi 109687
ius 109684
branches 109669
Brun@@ 109666
当 109665
Len@@ 109657
commerci@@ 109652
Andrea 109649
Austin 109642
gestellt 109635
lý 109628
injured 109627
cela 109602
например 109586
inglese 109581
Kun@@ 109576
matrimonio 109570
miembro 109565
Lov@@ 109555
سا@@ 109553
Motor 109546
если 109541
Top@@ 109513
somit 109490
mani@@ 109478
links 109454
collected 109453
protec@@ 109438
gle@@ 109429
Upon 109425
utbredningsområde 109418
발@@ 109417
membro 109382
中國 109381
progres@@ 109379
tạo 109364
Salvador 109359
premières 109352
covering 109338
スト@@ 109328
tag 109320
altura 109315
champions 109314
Bereits 109284
circle 109281
uti 109269
worn 109268
aufgenommen 109254
Ersten 109247
트 109246
Questa 109245
Provincia 109244
かつて 109209
чные 109207
expressed 109196
nations 109175
alter@@ 109166
Chr. 109159
ogen 109155
良 109129
avrebbe 109128
divisions 109119
host@@ 109103
sub-@@ 109102
réalisé 109069
inae 109067
rav@@ 109060
äm@@ 109045
этих 109033
ря@@ 109023
renov@@ 109020
AB 108973
ules 108968
就任 108961
Green@@ 108956
grant 108940
сть 108922
чи 108922
đường 108918
トン 108917
dessa 108914
帝国 108910
sdorf 108881
élections 108869
grands 108859
ńskiej 108837
naval 108831
after@@ 108828
hard@@ 108825
ф 108825
теле@@ 108822
강@@ 108818
Berg 108814
encuentran 108813
lu 108813
ني@@ 108780
senare 108777
Haus@@ 108767
Trans@@ 108766
две 108759
rell 108749
elo 108716
不同 108709
付け 108698
Stewart 108695
面積 108686
loud 108685
MTV 108657
続け 108640
им@@ 108624
五@@ 108624
將 108620
PR@@ 108612
Cau@@ 108604
draft 108602
並 108586
ول@@ 108581
items 108568
전 108542
vel 108534
serv@@ 108527
太 108526
acordo 108519
cav@@ 108508
eden 108501
Then 108480
Cour@@ 108474
factor 108469
Gemeinde@@ 108465
nota 108454
veröffentlichte 108453
1º 108443
equal 108428
forth 108424
母 108423
천@@ 108423
burned 108420
Now 108409
tych 108379
euse 108373
그는 108356
adult 108355
freedom 108343
emi@@ 108340
案 108339
Geb@@ 108302
labor 108294
ń 108291
波@@ 108289
Betrieb 108272
Carter 108260
fiel 108251
chúng 108246
distingu@@ 108243
ções 108243
команды 108241
www.@@ 108237
identi@@ 108229
йской 108226
будет 108221
principalement 108207
nova 108191
ön@@ 108185
stal@@ 108181
Beau@@ 108178
sole 108173
Esc@@ 108172
Werke 108163
rei 108124
habitat 108118
первой 108111
alguns 108096
femmes 108066
Cit@@ 108065
cousin 108062
Once 108052
системы 108048
部隊 108043
dient 108012
Questo 107998
wol@@ 107996
стороны 107992
L-@@ 107987
hosts 107987
exception 107983
Norway 107979
Bog@@ 107957
eled 107955
马@@ 107947
quin@@ 107945
тен@@ 107945
sever@@ 107934
Stan@@ 107930
Rudolf 107900
chin@@ 107886
spel@@ 107869
oral 107865
Universal 107864
обра@@ 107856
internal 107849
especial 107847
Bayern 107844
レ 107823
aproximadamente 107820
tex@@ 107800
Jun@@ 107798
tog 107796
Nähe 107792
station@@ 107792
capture 107787
140 107786
victoire 107786
titel 107773
Ras@@ 107769
około 107762
completamente 107755
Radi@@ 107754
pron@@ 107731
Inglaterra 107724
facing 107721
Brothers 107718
bear 107715
moder@@ 107694
step@@ 107677
homes 107655
Rel@@ 107646
вый 107641
eniem 107637
neighborhood 107618
Tây 107612
między 107599
resp@@ 107599
landing 107595
recognition 107593
xe 107588
motiv@@ 107584
mouvement 107559
visual 107557
ems 107554
Linie 107548
26. 107546
CD@@ 107539
vir@@ 107511
1815 107485
свои 107462
Liber@@ 107458
induc@@ 107457
守 107450
Moh@@ 107428
eks 107424
virus 107392
ры@@ 107374
challenge 107362
الر@@ 107356
tic@@ 107355
arran@@ 107353
tea 107344
нее 107340
ongeveer 107336
hinter 107326
evil 107306
Ciudad 107296
adi 107295
cabo 107292
inted 107290
hate 107289
1853 107286
demand 107274
сон 107267
ген@@ 107257
orum 107219
dish 107205
amo 107197
domestic 107181
350 107157
27. 107148
anga 107138
ور@@ 107136
burger 107133
colonial 107129
cycl@@ 107127
kn@@ 107123
ision 107120
Labour 107119
roc@@ 107093
rising 107088
Buch 107087
rows 107076
interpre@@ 107074
信@@ 107069
則 107058
発生 107029
常@@ 107024
leads 107016
Dallas 107010
terminal 106999
bli@@ 106994
lap@@ 106976
eleg@@ 106975
tels 106973
promo@@ 106972
我 106955
тного 106953
hoping 106949
Clar@@ 106916
Who 106909
Кроме 106907
kallt 106896
松@@ 106884
別@@ 106879
ман 106876
shooting 106874
planet 106869
papa 106864
民@@ 106864
родился 106857
recht@@ 106851
hàng 106826
Über 106820
metri 106819
papers 106811
ciò 106785
gul@@ 106785
ean 106779
aming 106773
marque 106763
гу 106756
Rosa 106742
pleasure 106740
形式 106727
常 106700
sob 106685
count 106683
combination 106676
сти 106676
stäppklimat 106646
bases 106643
Lind@@ 106620
sciences 106614
尾 106613
dado 106598
hl 106594
Bit@@ 106569
esses 106555
magn@@ 106549
biển 106544
Conseil 106540
explic@@ 106507
yst@@ 106500
Pietro 106470
device 106429
Norman 106418
act@@ 106414
ral@@ 106412
wet@@ 106406
statist@@ 106393
stable 106391
площадь 106380
Unido 106371
Way 106344
vul@@ 106329
ped@@ 106326
protagonista 106325
wedding 106323
ヘ@@ 106314
anne 106312
besch@@ 106305
independence 106292
Esp@@ 106274
onda 106267
disput@@ 106259
ев@@ 106253
carefully 106250
ством 106236
02 106233
außerdem 106223
sj@@ 106193
Sum@@ 106187
Louisiana 106173
ités 106155
企業 106148
dias 106145
elev@@ 106138
تو@@ 106122
thers 106106
classical 106103
Heart 106095
imper@@ 106087
autom@@ 106066
Gold@@ 106065
mant@@ 106049
itu@@ 106048
V-@@ 106038
1月 106037
Espagne 106035
Forces 106018
climate 106018
brachte 106017
menor 106012
quand 105994
iche 105990
gleich@@ 105969
kiej 105968
バー@@ 105963
vit 105951
stieg 105945
prim@@ 105936
isce 105935
rati@@ 105932
establish 105925
Hum@@ 105920
lequel 105918
équipes 105914
propria 105913
hidden 105907
refus@@ 105893
発 105861
рода 105859
向け 105849
através 105843
系統 105843
gé@@ 105825
Reserve 105824
ligh@@ 105822
niej 105822
rent@@ 105812
Holy 105811
geführt 105788
deck 105781
мов 105776
сы 105769
Tour@@ 105748
チ 105710
名称 105709
自分 105702
thì 105692
periode 105663
biggest 105657
eng 105652
category 105648
onian 105629
Bezeichnung 105626
eling 105625
me-@@ 105623
voted 105596
Executive 105595
Rural 105589
Yo@@ 105581
criminal 105570
rz@@ 105570
Video 105545
mans 105545
địa 105542
suivant 105526
電@@ 105510
mises 105490
industrie 105485
conven@@ 105484
36@@ 105474
Buch@@ 105473
lion 105461
把 105440
Lis@@ 105433
approached 105430
thông 105429
esen 105424
proper 105419
color@@ 105414
conhecido 105412
skir@@ 105401
request 105398
hap@@ 105372
consist@@ 105360
Polen 105320
ート 105320
Has@@ 105319
realize 105316
園 105311
shifted 105310
element 105307
cards 105306
itor 105306
aked 105295
quest' 105290
accompl@@ 105288
Plus 105259
inne 105259
sic@@ 105258
option 105252
Jews 105244
歴史 105243
거@@ 105243
œuvres 105228
britannique 105226
phim 105218
show@@ 105218
Elec@@ 105217
лен 105211
поли@@ 105211
nord@@ 105208
Oliver 105207
ruled 105203
inde 105193
utiliz@@ 105193
alisation 105192
章 105186
spiel@@ 105181
eaux 105174
學 105172
extra@@ 105164
differ@@ 105143
ター 105138
意 105128
thousands 105124
ür@@ 105115
D.C. 105113
fez 105102
Security 105101
tank 105095
compagnie 105089
foundation 105088
icos 105078
Ali@@ 105046
premio 105045
Č@@ 105037
appreci@@ 105028
システム 105009
horses 104993
poet 104990
It@@ 104987
lançado 104986
Ach@@ 104980
haut 104948
Neg@@ 104932
seule 104925
Non 104924
mond 104921
Arean 104919
まま 104896
Но@@ 104893
compete 104881
zam@@ 104875
城@@ 104868
Santos 104861
科学 104849
ющие 104844
sarebbe 104838
кино@@ 104834
kami 104833
equipos 104828
Thompson 104827
conten@@ 104826
мар@@ 104809
luogo 104806
чного 104802
土@@ 104791
tác 104790
tum@@ 104785
ault 104782
bast@@ 104782
pessoas 104771
церкви 104770
appearing 104766
Spe@@ 104763
arias 104757
13,@@ 104740
gräsmarker 104736
formato 104734
лин@@ 104733
гла@@ 104727
Alemania 104715
ис@@ 104704
그@@ 104702
Robinson 104694
Бер@@ 104683
피@@ 104676
tes@@ 104672
resist@@ 104660
1846 104656
Constitution 104649
reform 104638
usage 104630
cil@@ 104610
domaine 104606
Murray 104600
уда@@ 104600
Wald@@ 104595
Ocean 104591
presenza 104584
тельного 104582
株式 104580
đô 104575
jogo 104559
institution 104547
ف 104516
calm 104515
менее 104510
кам 104488
Pass@@ 104486
場所 104484
است@@ 104477
rushed 104475
asc@@ 104468
giorni 104460
resigned 104453
ursprünglich 104448
offensive 104444
محمد 104439
Á@@ 104414
cham@@ 104410
século 104409
34@@ 104401
kli@@ 104399
जाता 104398
describe 104389
Garden 104382
typical 104363
Program 104357
両 104335
الله 104323
0-talet 104302
張@@ 104301
Marshall 104288
naj@@ 104273
Guy 104252
dil@@ 104237
mesure 104231
las@@ 104204
hệ 104177
Hin@@ 104165
Comics 104152
hus@@ 104151
Те@@ 104144
年度 104143
chs 104138
125 104132
asts 104106
Jeff 104099
ностью 104090
inhabitants 104087
rea 104080
first-@@ 104074
tering 104066
Yu@@ 104061
Though 104055
dade 104053
vực 104019
Wasser 103997
campagne 103996
nag@@ 103990
'i 103981
gruppen 103962
Vienna 103961
forget 103951
Anton 103944
bian 103938
vik 103932
disappeared 103924
一些 103902
pace 103897
Hab@@ 103896
différentes 103877
Франции 103868
literary 103859
29. 103855
appelé 103849
ega 103843
Camp 103821
Baron 103818
khoảng 103812
3月 103801
horn 103796
programming 103788
good@@ 103786
契約 103778
Catherine 103769
Gul@@ 103768
ady 103765
Jego 103754
Ziel 103740
風@@ 103726
pf@@ 103721
Bac@@ 103720
जो 103718
installed 103713
And@@ 103712
archi@@ 103705
Angleterre 103703
mehreren 103700
感 103697
Gallery 103679
連@@ 103667
lane 103665
Senior 103661
状態 103637
Paolo 103632
كا@@ 103628
erwähnt 103619
dings 103605
partes 103591
си 103588
tivo 103579
employees 103567
instruments 103553
лы@@ 103537
queste 103501
партии 103492
singolo 103480
цами 103480
avaient 103470
特別 103452
Pav@@ 103451
user 103448
CBS 103426
när 103414
parking 103411
reduce 103400
wra@@ 103400
sv@@ 103399
Fred 103398
ün@@ 103380
script 103358
firma 103344
hun@@ 103343
l-@@ 103340
instrument 103335
æ@@ 103329
conocida 103328
raise 103313
Rhein@@ 103305
还 103305
6月 103297
국@@ 103294
pris 103280
relación 103280
dafür 103272
possède 103266
publié 103263
wounded 103254
camp@@ 103253
task 103252
फ 103240
الش@@ 103220
arranged 103214
progetto 103214
Madonna 103210
Modern 103209
€ 103201
factory 103198
demande 103172
eso 103140
aspi@@ 103130
prodotto 103127
tours 103114
Eis@@ 103110
lip@@ 103104
absolvierte 103102
dest@@ 103101
odes 103095
Children 103093
formes 103085
fashion 103084
Holz@@ 103080
push 103063
adop@@ 103061
зу@@ 103061
Will@@ 103044
ską 103039
weapon 103030
र@@ 103026
peak 103020
14,@@ 103019
tha 103016
Alliance 103008
éri@@ 102996
rid 102983
fica 102969
saint 102960
García 102944
outs 102925
wen 102924
conf@@ 102910
than@@ 102889
feelings 102865
5月 102856
vär@@ 102837
MC 102823
П. 102812
igual 102811
manière 102809
flic@@ 102793
prom@@ 102793
रूप 102793
nordvästra 102768
Bahnhof 102761
relat@@ 102752
Terra 102750
وكانت 102750
лей 102743
1847 102739
Pit@@ 102738
omet@@ 102738
anime 102731
eel 102724
advance 102717
Go 102712
arlo 102706
engines 102677
posed 102663
bra 102659
ología 102649
glad 102638
впервые 102638
5th 102636
Delhi 102617
ht@@ 102606
model@@ 102599
dul@@ 102592
mill 102566
whe@@ 102561
mucho 102553
kun@@ 102551
hab 102497
Wright 102480
Nicolas 102478
周 102468
rup@@ 102463
aparece 102459
動@@ 102459
constant 102441
examin@@ 102440
Sau 102432
вались 102431
чу@@ 102430
ranking 102403
Josef 102399
Gru@@ 102395
mix@@ 102394
icious 102393
oured 102386
skład 102386
لو@@ 102380
lage 102374
ザ@@ 102374
feed 102367
smell 102364
Gary 102363
達@@ 102346
ium 102345
Rico 102338
ish-@@ 102336
анти@@ 102321
espèces 102314
scor@@ 102306
admi@@ 102300
servizio 102288
Germania 102287
metà 102287
improve 102282
клуб 102281
IR@@ 102280
Sing@@ 102269
gauche 102268
canciones 102258
주 102255
ng 102229
高校 102222
weniger 102215
shaking 102207
elimin@@ 102194
Spielen 102193
бор@@ 102178
Global 102170
HMS 102168
protected 102148
нов@@ 102148
But@@ 102143
inen 102096
distinct 102092
Marc 102078
vezes 102065
tới 102044
considerado 102024
otic 102021
反@@ 102020
profit 102010
Hall@@ 102001
Water 101991
sick 101988
popular@@ 101985
antalet 101984
Turkish 101977
término 101970
중 101966
取得 101965
11,@@ 101964
giáo 101955
fos@@ 101926
бра@@ 101925
contain 101921
لي 101919
obi@@ 101913
ulus 101905
思 101903
î@@ 101900
Pf@@ 101889
Administration 101888
mới 101872
Erfolg 101867
Lav@@ 101850
18th 101846
центра 101833
entwickelte 101829
tura 101823
江@@ 101822
野@@ 101818
lần 101808
Ges@@ 101803
Ltd 101801
closing 101790
stores 101787
tired 101770
الك@@ 101760
coup 101754
Jugend@@ 101733
ush@@ 101732
Хо@@ 101732
improved 101710
comic 101700
objetivo 101690
실@@ 101689
paused 101686
confused 101685
solid 101684
erster 101665
Graham 101642
estuvo 101622
bot 101621
objects 101612
uten 101608
4月 101600
balance 101600
bald 101597
ческая 101596
wins 101591
tet 101586
racial 101570
ل 101564
公里 101560
originale 101559
Präsident 101553
만@@ 101545
聖@@ 101535
vari 101532
Cir@@ 101530
oid 101525
agency 101523
operate 101520
departementet 101511
Quebec 101498
apar@@ 101493
residence 101482
stan 101468
guards 101462
paintings 101456
rever@@ 101444
leven 101442
ником 101437
Vancouver 101432
Sei@@ 101406
ろ 101399
św. 101398
чер@@ 101398
credit 101392
movimento 101390
Gun@@ 101387
consiste 101384
stating 101374
thre@@ 101368
Chin@@ 101358
тот 101357
promote 101352
Death 101340
regularly 101338
Spanien 101337
kid 101334
wald 101321
cum@@ 101291
unas 101282
gebaut 101277
Cav@@ 101271
根 101269
trị 101259
Gab@@ 101248
aje 101237
Wood 101233
Alla 101231
you@@ 101203
banks 101202
somewhat 101200
candidates 101144
共同 101132
リー@@ 101128
第@@ 101112
teil@@ 101105
rial 101101
além 101096
abor@@ 101089
45@@ 101082
align 101078
لم@@ 101076
От@@ 101069
normally 101064
永@@ 101062
stare 101057
берегу 101056
clan 101034
größten 101028
Mich@@ 101007
ji@@ 100984
nouvelles 100980
bishop 100951
individu@@ 100945
llamada 100944
alle@@ 100935
tàu 100935
Hun@@ 100928
SV 100926
группа 100922
ن 100921
breve 100919
chap@@ 100918
poetry 100918
кли@@ 100918
Bundesliga 100908
зе@@ 100908
Campbell 100907
anes 100898
ске 100895
concluded 100867
iced 100860
1812 100854
Portuguese 100847
Wh@@ 100812
gingen 100809
университета 100800
ダ 100800
fan@@ 100789
behavior 100780
friendly 100775
Thus 100763
varie 100763
Unión 100755
enth 100751
proceso 100747
Grund 100743
う@@ 100733
施設 100724
delivered 100723
ernannt 100722
Railroad 100721
市镇 100720
offering 100701
tern@@ 100657
vittoria 100645
ausge@@ 100636
ван 100636
proces@@ 100628
plot 100627
Vas@@ 100626
ike 100617
dix 100615
最も 100602
gewesen 100588
tak 100588
quer 100583
representative 100577
京都 100573
Version 100570
talent 100557
strada 100533
Girls 100519
ние 100501
futuro 100493
genoemd 100493
maggior 100493
moth 100492
eca 100491
سي 100491
ministro 100485
zenie 100479
200@@ 100474
Mission 100465
대 100463
kni@@ 100459
Би@@ 100439
зы 100428
сборной 100419
Nan@@ 100413
起こ 100413
itation 100407
Singles 100406
improv@@ 100390
Luigi 100387
elementos 100387
Wrestling 100363
発@@ 100358
Infantry 100355
ही 100344
льного 100342
領 100342
Bruno 100332
zt 100323
depic@@ 100315
vat@@ 100287
Alto 100278
indo 100273
Turkey 100260
otes 100255
sĩ 100246
Apple 100243
ju 100242
siempre 100221
Warren 100210
Roc@@ 100197
經@@ 100197
natomiast 100196
區@@ 100194
Foreign 100189
19@@ 100171
gender 100167
weak 100154
esposa 100150
NE@@ 100142
tä@@ 100124
Leo 100123
Om@@ 100120
dier 100108
에게 100102
rất 100101
Baltimore 100096
donné 100091
repeated 100085
Coppa 100083
jumped 100081
tip 100047
nur@@ 100040
Let@@ 100026
ザ 100020
rop@@ 100006
أنه 100001
Jeux 99998
sé 99983
Rein@@ 99969
방@@ 99967
одного 99965
separated 99948
状 99935
Ä@@ 99934
Klasse 99926
ór@@ 99881
Palace 99876
rejoint 99871
essed 99866
besides 99858
Wayne 99856
på@@ 99850
vice-@@ 99846
reserve 99831
8.@@ 99818
Squadron 99815
valor 99804
용@@ 99792
Lehr@@ 99787
sä@@ 99779
每 99778
alization 99772
wan 99772
лении 99771
um-@@ 99770
dwóch 99763
Affairs 99754
Wein@@ 99748
政@@ 99748
101 99746
General@@ 99726
Mid@@ 99715
populations 99709
心@@ 99687
семье 99684
cricket 99677
ست@@ 99674
asteroide 99659
开始 99655
breathing 99649
분@@ 99618
rs 99614
horror 99596
edición 99593
Youth 99591
Ian 99590
N. 99588
ential 99576
brick 99559
purchase 99558
Early 99544
tric@@ 99535
ван@@ 99531
тельной 99494
landed 99492
行政 99490
1845 99479
prof@@ 99478
片 99478
paese 99472
geschichte 99464
flugor 99430
http 99425
Iraq 99424
acu@@ 99414
31. 99360
franchise 99358
受 99356
bet 99350
성 99350
selection 99337
BA 99335
Pablo 99331
costs 99329
forming 99326
część 99309
knife 99308
committed 99307
ece 99280
دة 99279
перед 99273
Patri@@ 99271
Birmingham 99266
Mill@@ 99262
ラン@@ 99252
كرة 99245
isen 99244
nord-sydlig 99241
Japon 99222
тор 99211
входит 99204
principio 99203
maintain 99198
letting 99195
opi@@ 99180
mad 99178
ru 99161
Gall@@ 99128
果た 99128
meters 99123
Brit@@ 99119
activité 99117
ATP 99107
klasse 99107
resistance 99107
control@@ 99101
ş@@ 99091
südlich 99089
certaines 99088
obviously 99077
Cru@@ 99076
Indonesia 99067
드 99066
cut@@ 99058
mic 99053
PlayStation 99052
debate 99039
من@@ 99033
tured 99012
цен@@ 99003
może 98993
Motor@@ 98991
oted 98990
Cemetery 98971
flew 98970
Köln 98968
entreprise 98950
values 98950
ён 98950
compr@@ 98943
spirit 98932
werk@@ 98929
äu@@ 98903
Ин@@ 98872
ния 98852
Organisation 98846
aja 98827
ache 98826
立@@ 98825
ско-@@ 98820
ceased 98813
presenti 98813
fece 98811
medios 98811
mountains 98811
гом 98806
viewed 98804
alrededor 98802
arly 98800
pháp 98783
medieval 98782
تقع 98768
Wahl@@ 98749
nde 98744
itis 98738
low-@@ 98738
Johan 98733
weekend 98729
Trust 98728
zn@@ 98721
geon 98718
dian 98710
당@@ 98706
CEO 98699
estación 98693
ений 98692
accused 98689
crossing 98649
質 98641
ج 98627
którego 98623
Ng@@ 98622
игры 98606
市@@ 98597
щ@@ 98593
ряд 98572
alan@@ 98571
présence 98553
consisting 98551
Bod@@ 98533
aspects 98528
ду 98527
épouse 98523
の@@ 98512
الص@@ 98503
iglesia 98497
ganó 98476
Bei@@ 98475
zones 98452
Baker 98448
Che@@ 98441
فيها 98432
lawyer 98430
ência 98425
38@@ 98420
Gas@@ 98410
Lane 98382
propre 98374
Raymond 98371
his@@ 98370
Arkansas 98366
Google 98361
victoria 98361
женщин 98355
-de-@@ 98351
G-@@ 98347
Mountains 98337
mens 98311
matchs 98308
Lucas 98300
RO@@ 98297
лены 98293
Mar 98292
fus@@ 98276
lung@@ 98269
gros@@ 98263
p-@@ 98245
welches 98237
jaw 98231
correct 98224
学@@ 98211
northeast 98210
voit 98193
lieutenant 98175
work@@ 98169
icas 98155
moon 98155
élu 98154
ować 98152
Silva 98123
Nachfolger 98118
zeit@@ 98113
같은 98113
aders 98109
節 98100
Glasgow 98093
reçoit 98078
Last 98048
終了 98044
wsi 98042
Bắc 98036
pattern 98032
Lak@@ 98012
説 97994
tle 97992
rad 97965
以前 97960
Stars 97941
能力 97934
Mei@@ 97927
наук 97926
Wind@@ 97923
finalement 97894
sola 97869
diff@@ 97866
cultiv@@ 97865
weak@@ 97851
enjoyed 97850
interests 97846
компании 97846
gioco 97837
jet 97824
Ло@@ 97823
kehrte 97821
rolling 97819
stammt 97818
counter 97811
Be 97806
phy 97801
gon@@ 97792
web@@ 97774
こ 97769
Einwohnern 97765
総 97763
Chal@@ 97755
wheel 97750
Afrique 97744
Ann 97713
Kloster 97710
enz 97705
smiling 97696
NBC 97686
ests 97686
assistance 97685
patient 97685
住 97685
punk 97682
nên 97680
thor@@ 97678
Efter 97675
miał 97674
Ron@@ 97672
ökenklimat 97668
eving 97663
grin 97663
cinque 97657
R.@@ 97645
lorsque 97635
ден@@ 97632
svensk 97622
360 97620
lingua 97617
patri@@ 97613
angle 97600
жителей 97598
Pittsburgh 97597
гра@@ 97595
signs 97594
oj@@ 97593
feder@@ 97575
rin 97548
propio 97534
Standard 97520
ców 97520
gente 97517
Py@@ 97504
Just 97497
대한 97485
1842 97484
vários 97481
destruction 97473
vs 97465
初期 97463
amateur 97461
ition@@ 97461
Five 97453
Weg 97452
Dist@@ 97445
clock 97440
gged 97434
waarin 97407
osos 97402
先@@ 97393
uss 97372
elas 97367
Net@@ 97364
pav@@ 97362
agriculture 97360
threatened 97354
13.@@ 97344
distributed 97339
Water@@ 97324
ume 97324
weg@@ 97321
debe 97284
フェ@@ 97282
ところ 97279
D.@@ 97278
14.@@ 97277
seguinte 97272
eigh@@ 97268
agree 97261
군@@ 97258
Reich@@ 97254
Ainsi 97248
Independent 97248
часто 97242
bag@@ 97237
AF@@ 97217
Egypt 97212
Ihre 97205
rada 97198
faster 97185
loan 97183
Пер@@ 97178
Age 97173
arrival 97172
37@@ 97164
atom@@ 97162
Gustav 97141
End 97140
nordöstra 97139
후 97126
Kul@@ 97120
кова 97118
流@@ 97110
sydvästra 97097
ы@@ 97097
Sprache 97092
تها 97066
Согласно 97064
onne 97063
snow 97059
11月 97054
植物 97051
ail 97042
教@@ 97042
województwie 97040
Ze@@ 97039
trav@@ 97029
tidigare 97025
jes@@ 97019
Swiss 97012
Mỹ 97004
普@@ 97003
이후 97002
渡 96998
verheiratet 96995
内容 96990
tranh 96979
manner 96976
gjorde 96964
vivo 96955
colspan 96949
vooral 96939
な@@ 96939
ру 96938
Fac@@ 96936
ومن 96936
decade 96935
Reb@@ 96906
burning 96906
Jonathan 96902
bara 96900
secretary 96898
差 96897
giovane 96896
1814 96891
sburg 96875
Республики 96869
kab@@ 96841
enquanto 96835
明治 96834
corte 96828
driven 96821
responsibility 96811
zoon 96798
он@@ 96793
grace 96783
stages 96781
eded 96754
belt 96746
thủ 96738
belief 96730
choose 96721
Lon@@ 96719
Ста@@ 96716
dire 96710
auto 96703
Ner@@ 96699
vue 96699
trận 96695
Wiener 96688
onych 96686
cấp 96681
problema 96680
Gener@@ 96678
courts 96675
管 96668
anschließend 96647
alité 96637
mee 96636
настоящее 96625
sería 96614
tis@@ 96603
Pir@@ 96600
a.C. 96593
적으로 96592
mid 96585
quet 96575
Place 96569
estu@@ 96553
Silver 96549
recibió 96547
fier@@ 96543
riv@@ 96541
ician 96540
Switzerland 96522
這@@ 96519
ąc 96511
För@@ 96510
techn@@ 96497
Athletic 96495
orde 96491
vec@@ 96487
zin@@ 96484
etes 96478
sudden 96474
glob@@ 96459
WWE 96436
wis@@ 96432
seriously 96431
カー 96427
battaglia 96422
communications 96422
ter-@@ 96415
Kanton 96402
and-@@ 96394
Zudem 96390
ى 96389
eke 96378
print 96359
anych 96352
Brooklyn 96349
ridge 96339
itting 96318
mption 96313
gaan 96310
terri@@ 96297
ników 96291
demanded 96285
zap@@ 96266
isso 96261
starred 96260
Parker 96252
dispute 96249
größte 96243
Convention 96230
lists 96228
Nell' 96221
Teile 96211
門@@ 96204
lingen 96197
muchas 96192
CC@@ 96191
Familienname 96176
Klein@@ 96166
pin 96162
islands 96159
OR@@ 96152
ос@@ 96150
وب@@ 96127
arasında 96126
voc@@ 96125
образования 96121
bildet 96119
transfer@@ 96119
travers 96109
máy 96102
hoy 96101
describes 96100
slipped 96099
cabinet 96088
вое 96080
mont@@ 96068
thức 96066
Maine 96057
eing 96057
isola 96053
umfasst 96048
accompanied 96041
René 96037
キ 96035
成为 96033
입@@ 96033
favorite 96026
stanie 96010
tat@@ 96005
jam@@ 96004
愛@@ 95996
Coun@@ 95993
лена 95992
moyenne 95985
Tower 95984
мом 95981
snapped 95971
ph 95962
m. 95957
fruit 95956
っ@@ 95953
1837 95952
生産 95948
cell@@ 95940
野球 95922
塔 95915
avere 95914
Stuttgart 95913
enburg 95908
理 95903
Blues 95902
selben 95891
Welt@@ 95882
beer 95876
Совета 95871
issa 95865
密度 95862
zostały 95856
zing 95852
concerts 95850
車両 95834
ści@@ 95831
много@@ 95828
Mem@@ 95824
mission@@ 95808
require 95808
lined 95796
constituency 95789
grey 95782
flan@@ 95779
grass 95778
terzo 95770
су 95764
北部 95736
thirty 95735
ib@@ 95733
öst-västlig 95732
arbeiten 95727
कार 95723
ロシア 95723
expl@@ 95717
shift 95700
5000 95690
Bush 95673
wolf 95668
сте@@ 95654
Truppen 95652
электро@@ 95649
ará 95642
Dark 95637
jun@@ 95636
ganz 95629
NHL 95625
arab@@ 95617
åter@@ 95614
オー@@ 95602
degrees 95600
pren@@ 95598
々 95598
exhibition 95587
år@@ 95571
фе@@ 95552
Edinburgh 95549
miasto 95525
dö@@ 95515
quatro 95506
منها 95475
inde@@ 95469
тельных 95463
broad 95454
entwickelt 95423
ров@@ 95405
teachers 95395
反 95395
八 95375
adjacent 95366
Arab 95359
Tit@@ 95349
soc@@ 95347
Matthew 95339
清 95338
giant 95324
1838 95313
yar@@ 95300
Verbindung 95294
來 95292
environmental 95281
Cham@@ 95262
青@@ 95249
불@@ 95247
Information 95238
후@@ 95229
begun 95227
busy 95227
Met 95219
Ani@@ 95202
charts 95182
Feld@@ 95177
Soci@@ 95169
Thor@@ 95163
Landes 95156
Robin 95136
eil@@ 95132
空@@ 95126
waters 95123
agents 95121
dritten 95116
要求 95113
sberg 95111
electronic 95092
pé@@ 95079
Ту@@ 95057
南部 95056
드@@ 95055
E.@@ 95054
amy 95037
目@@ 95031
tropas 95026
éc@@ 95025
comté 95020
Fab@@ 95017
Moon 95015
curi@@ 95014
Orange 95004
CC 95003
NO@@ 94996
ubicada 94986
emen 94983
participate 94974
Metropolitan 94965
посе@@ 94965
politischen 94964
Iron 94958
nec@@ 94956
contr@@ 94938
Pictures 94937
селе 94932
últimos 94910
généralement 94889
шей 94875
Saturday 94863
超 94855
andosi 94853
进行 94851
び 94848
tales 94832
tests 94795
truly 94770
福@@ 94769
Uruguay 94759
nap@@ 94748
servicio 94747
talked 94742
女@@ 94740
オ 94737
勝利 94737
hanging 94717
danych 94712
moral 94707
Dro@@ 94691
contrast 94691
alleen 94677
rete 94673
worst 94660
Ja@@ 94656
binnen 94652
bố 94651
Barry 94645
tribut@@ 94636
simul@@ 94630
goods 94629
thy 94626
Cerambycidae 94613
Daily 94610
ży@@ 94609
materi@@ 94607
Zone 94606
вновь 94598
ًا 94594
americana 94593
Finale 94589
northwest 94584
Stu@@ 94575
imagine 94572
fanden 94570
innych 94559
シングル 94554
possibile 94550
f-@@ 94544
distribu@@ 94527
Dieses 94525
roughly 94525
フィ@@ 94523
eg 94520
Damit 94514
bathroom 94512
implic@@ 94510
1930s 94508
minimum 94505
teen@@ 94504
Olympischen 94498
Islamic 94494
bal 94488
sli@@ 94488
нова 94486
loop 94475
ihres 94473
Tag@@ 94465
Films 94448
лли@@ 94426
Back 94414
samym 94409
stick 94403
amenti 94399
iu 94393
township 94393
-K@@ 94380
口@@ 94375
mounted 94370
mak@@ 94365
divi@@ 94362
Sony 94356
AR 94341
theastern 94341
Gmina 94328
184@@ 94316
Jer@@ 94311
acteur 94309
priest 94305
oblig@@ 94304
spielt 94299
moglie 94295
Rock@@ 94286
acqua 94281
damaged 94258
авто@@ 94258
1844 94246
ods 94243
Tw@@ 94236
even@@ 94236
pour@@ 94230
atum 94224
尼 94221
faith 94218
Nav@@ 94215
replace 94207
iner@@ 94199
3D 94189
satellite 94176
Prä@@ 94169
mettre 94162
Arnold 94160
lata 94160
concrete 94158
groupes 94154
Tem@@ 94149
fas@@ 94147
ギ@@ 94131
Ausbildung 94125
нет 94124
يمكن 94121
Dru@@ 94120
Czech 94117
quais 94114
utan 94114
punti 94111
села 94108
início 94103
دا@@ 94099
definitely 94098
Jon@@ 94095
다른 94093
stazione 94084
oss 94050
elde 94037
nördlich 94022
sap@@ 94019
直接 94002
сам 93989
sequ@@ 93988
الخ@@ 93977
taste 93972
flat@@ 93969
deli@@ 93968
designs 93961
eric 93958
trat@@ 93955
maart 93952
skalbaggsart 93950
bourg 93944
weise 93943
full-@@ 93936
exterior 93932
yg@@ 93931
oci@@ 93927
Peru 93923
zdobył 93920
instance 93919
Schweizer 93913
estaban 93913
bent 93905
lare 93900
electro@@ 93893
1,000 93888
回@@ 93887
mercado 93886
gren@@ 93884
measure 93884
Franco 93882
sala 93879
ени@@ 93869
Kel@@ 93864
abad 93857
aches 93856
troupes 93850
ソン 93850
aktiv 93835
tun@@ 93803
モデル 93803
seria 93799
temas 93796
boards 93792
Baseball 93778
ancest@@ 93773
pit 93771
bilden 93770
werke 93754
Германии 93739
elly 93736
yon 93735
mem@@ 93728
沙@@ 93710
saved 93703
河@@ 93703
vocals 93692
praised 93691
publications 93691
bile 93682
considerable 93671
DA 93665
lun@@ 93650
등 93649
heiratete 93646
Ful@@ 93631
ßen 93629
interfer@@ 93626
Besitz 93623
journey 93613
Orleans 93597
تا@@ 93597
ejército 93585
responded 93585
solar 93585
jeunes 93575
reform@@ 93575
ян@@ 93575
18-@@ 93573
Utah 93573
comando 93570
studying 93570
장 93559
много 93555
рии 93548
est-@@ 93536
wiel@@ 93529
tập 93516
華@@ 93508
by-@@ 93507
Nazionale 93505
Ortsteil 93505
Universidade 93503
Base 93501
coal 93492
itt 93490
1839 93489
Бар@@ 93488
iere 93483
unes 93476
9.@@ 93475
référence 93475
wake 93473
пло@@ 93461
Société 93460
ght@@ 93460
aller@@ 93458
мой 93447
conseil 93444
osas 93444
voie 93444
Siehe 93442
eiro 93435
principe 93430
horas 93424
vast 93419
kadar 93411
Taiwan 93403
insektsart 93403
lövskog 93394
ер@@ 93391
ныне 93382
內 93380
âm 93356
почти 93354
Turner 93339
вших 93322
résultats 93317
tim@@ 93299
document 93298
nr 93297
Pow@@ 93271
أي 93270
1835 93268
早 93263
スター 93261
Geor@@ 93255
thi 93250
Ор@@ 93244
scen@@ 93241
acid 93223
Draft 93222
cry 93213
バー 93206
stron@@ 93198
民主 93180
elt@@ 93166
食 93158
slag 93152
Европы 93152
ونسبة 93144
Malaysia 93138
CS 93131
ograph@@ 93123
Holland 93122
Valle 93102
democ@@ 93091
geg@@ 93091
aster@@ 93089
determine 93085
anu@@ 93078
Firma 93068
keer 93068
ńskim 93031
oo 93030
tir 93028
全て 93028
альбом 93027
公園 93000
keys 92992
書@@ 92978
feels 92970
samhällen 92955
ide 92952
lik 92951
collections 92942
ambiente 92939
Code 92934
Boh@@ 92928
ات 92893
położona 92883
目前 92879
台灣 92875
pasó 92861
fifteen 92850
sand 92824
sione 92823
semi@@ 92818
Bry@@ 92815
Dresden 92814
eties 92779
mètres 92766
earliest 92765
音@@ 92762
verloren 92761
вод@@ 92757
тельный 92756
sträcker 92736
cali@@ 92735
forever 92732
Third 92728
vert 92698
夏 92677
Jerry 92675
Dob@@ 92665
од@@ 92644
北京 92636
stil@@ 92631
mary 92624
収録 92614
argent 92597
dob@@ 92576
Capital 92570
jump 92566
thấy 92565
губернии 92563
ça 92558
学院 92554
Systems 92553
lift 92552
Gründung 92536
sezonie 92535
wn 92522
commerce 92517
painter 92514
atrice 92510
Ast@@ 92507
하며 92500
tension 92497
nier 92485
nomination 92471
principios 92462
1836 92456
жение 92454
大きな 92443
yp@@ 92439
Kirch@@ 92435
эти 92406
medic@@ 92403
Member 92386
ト 92372
philosophy 92369
김@@ 92364
Wen@@ 92359
ち@@ 92359
chemical 92354
zien 92338
Mir@@ 92333
Bour@@ 92332
machen 92329
Raum 92319
inal 92315
Ж@@ 92314
tionary 92312
sept 92305
Harrison 92303
Alexandre 92296
befand 92292
게 92290
hohen 92286
ческое 92272
waarbij 92271
End@@ 92254
vanaf 92253
medicine 92247
itive 92244
trabalho 92222
underground 92208
建築 92205
Begriff 92183
aún 92170
haz@@ 92170
svenska 92169
вского 92163
метров 92162
trail 92155
persons 92145
Vier@@ 92128
dera 92121
presidential 92118
sper@@ 92109
ом 92103
nod 92101
シャ@@ 92096
prize 92095
francés 92091
businesses 92090
1841 92086
Antoine 92079
кру@@ 92074
Sev@@ 92065
сты 92061
Está 92051
existed 92044
初めて 92042
ária 92040
Secondo 92039
sogar 92039
practic@@ 92033
сезона 92025
possession 92015
病 91993
Six 91981
experiment@@ 91979
Lima 91962
retrouve 91934
Hem@@ 91931
lod@@ 91927
cine 91924
Here 91919
IUCN 91917
neutr@@ 91900
uomini 91895
Fair@@ 91887
회@@ 91886
학@@ 91883
maker 91874
stag@@ 91873
имя 91871
場@@ 91862
Afrika 91861
utt@@ 91842
Cooper 91838
formul@@ 91838
savannskog 91833
Tun@@ 91832
ge-@@ 91831
develop@@ 91830
AL 91823
maire 91810
shore 91810
1834 91808
cry@@ 91808
造 91808
đấu 91807
버@@ 91804
す@@ 91788
mando 91777
Pun@@ 91773
Preis 91767
Wolfgang 91754
Федерации 91749
sequence 91721
차@@ 91719
Morris 91718
改 91714
school@@ 91708
egli 91696
grandfather 91690
recre@@ 91689
ierung 91673
eti 91656
borg 91655
рен@@ 91655
بـ 91643
بر@@ 91641
notably 91629
phil@@ 91623
obvious 91621
cuerpo 91617
engineer 91617
瓦@@ 91604
itude 91597
zelf 91595
enst@@ 91591
школы 91589
tiểu 91588
augustus 91585
Tage 91584
niego 91577
Gh@@ 91566
án@@ 91566
Lieutenant 91562
parc 91539
urban@@ 91520
16,@@ 91510
tica 91501
agricultural 91499
passengers 91499
jet@@ 91498
shouldn 91493
adaptation 91483
john 91478
жен@@ 91473
тре@@ 91467
actualmente 91465
raum 91459
vaak 91446
15-@@ 91443
عاماً 91431
Tul@@ 91429
promised 91423
程度 91422
or-@@ 91418
श 91412
iter 91396
LE@@ 91383
wanting 91360
ジャ@@ 91358
平均 91353
einmal 91351
água 91351
честь 91350
u-@@ 91348
Mass@@ 91345
Как 91343
eping 91342
daw@@ 91329
localizada 91325
cầu 91319
Stefan 91313
just@@ 91312
toc@@ 91310
peso 91308
alismo 91300
Hag@@ 91287
ried 91276
1832 91274
Ehren@@ 91272
iza 91261
phi@@ 91259
uli@@ 91259
gay 91252
casos 91243
Inlandsklimat 91239
Dead 91236
川@@ 91233
ensure 91227
ур@@ 91223
auc@@ 91207
мм 91205
이며 91195
persu@@ 91192
prendre 91188
musicians 91181
salv@@ 91181
Tournament 91176
treated 91172
beauty 91171
linked 91169
活躍 91167
icul@@ 91137
heading 91134
composé 91128
preserv@@ 91122
Александр 91098
2,5 91093
langen 91082
ses@@ 91081
типа 91079
機能 91079
rar@@ 91070
적@@ 91060
nar 91058
boats 91056
situado 91053
Jac@@ 91046
fte 91046
Command 91040
algo 91039
professeur 91039
osp@@ 91035
MO@@ 91034
Rangers 91024
gelegen 91007
цкий 91003
нского 91001
由於 90996
Francji 90990
rodziny 90976
wick 90968
こ@@ 90964
employment 90963
diz@@ 90947
예@@ 90945
Meister 90944
büyük 90936
rapidement 90925
spel 90918
хотя 90913
wenig 90912
warning 90903
assist@@ 90902
progress 90899
半 90893
Champion 90869
imit@@ 90859
jak@@ 90856
Beim 90848
eit@@ 90839
Leh@@ 90822
фа 90811
arium 90800
shoot 90799
passa 90788
machines 90785
Bischof 90775
Brasilien 90772
damaligen 90749
ateurs 90744
Kurt 90742
icks 90736
hundreds 90735
eth 90734
ية 90731
operates 90729
tz 90729
situada 90725
Bach 90722
inin 90722
Chairman 90716
Evans 90715
B.@@ 90714
construit 90709
Spring 90693
Burg@@ 90689
avam 90687
marketing 90670
Kunst 90638
sers 90635
1843 90634
sero 90631
consul@@ 90622
alter 90608
Leb@@ 90607
Islam 90590
décide 90588
Ana 90587
Rum@@ 90582
nous 90578
villes 90561
classement 90547
purposes 90542
العالم 90540
golden 90529
regiment 90518
wood@@ 90499
rak@@ 90494
numer@@ 90492
historian 90489
उत 90480
yi@@ 90469
rejected 90462
Guinea 90458
avevano 90454
au-@@ 90449
wieder@@ 90442
nhạc 90441
fig@@ 90433
geben 90431
successivo 90415
Rafael 90407
primero 90403
ーズ 90385
costruzione 90382
指定 90376
ard-@@ 90360
線@@ 90356
wagen 90347
Lanka 90345
Weitere 90331
seventh 90321
open@@ 90316
powered 90310
churches 90299
pairs 90298
Wa@@ 90284
которое 90281
ough@@ 90278
センター 90274
всё 90252
司 90236
加え 90229
benannt 90228
vai 90224
th-century 90216
Lorenzo 90186
áreas 90165
メンバー 90156
planta 90155
duties 90134
estão 90133
hospit@@ 90106
waist 90098
kid@@ 90089
daar 90085
makeup 90069
vas@@ 90064
체@@ 90049
Manhattan 90045
³ 90025
兩@@ 90025
момент 90012
scent 90008
Nintendo 89994
lant 89994
Story 89989
ش 89989
受賞 89974
Guatemala 89958
survive 89956
couples 89947
団 89942
вич 89939
ve-@@ 89938
interesting 89929
Vari@@ 89928
tut@@ 89917
centrum 89902
Gilbert 89898
сла@@ 89884
shell 89873
fera 89863
begon 89860
lei@@ 89857
istes 89856
受@@ 89828
audio 89824
entering 89818
ux 89815
ū 89812
移 89808
警察 89800
Sky 89798
Israeli 89796
ваться 89775
derde 89770
Knight 89764
sto 89758
少な 89750
рав@@ 89749
rien 89747
ehemalige 89739
dum@@ 89734
初@@ 89732
skap@@ 89725
pursu@@ 89723
ebenso 89722
Beh@@ 89707
fim 89706
春 89687
wher@@ 89683
организации 89670
visit@@ 89661
Hell@@ 89644
returns 89636
propose 89630
incluyendo 89624
esercito 89619
частности 89605
ör 89592
頭@@ 89591
Review 89574
Down 89571
Greece 89565
bij@@ 89560
окончил 89549
azi@@ 89536
層 89528
Masters 89525
火 89519
гов 89518
Mai@@ 89517
Indien 89510
eder 89509
そこ 89509
職 89499
alista 89498
zero 89496
hips 89488
Após 89474
severe 89474
및 89466
Sad@@ 89454
insul@@ 89451
Pent@@ 89449
versi@@ 89449
Кор@@ 89446
Teil@@ 89445
sh 89445
Москве 89442
наиболее 89436
britischen 89430
atta@@ 89427
最大 89426
만 89411
Test 89410
musica 89410
la-@@ 89409
heit 89402
Kr@@ 89380
anch@@ 89380
15.@@ 89379
tent 89378
d. 89360
七 89359
théâtre 89356
ين@@ 89353
besitzt 89346
schi@@ 89346
自然 89345
dest 89339
強@@ 89336
ske 89333
bud@@ 89326
1831 89320
propor@@ 89290
制度 89290
mundial 89281
stile 89267
adding 89255
genommen 89254
luz 89254
podem 89238
categoria 89229
defensive 89225
183@@ 89211
examples 89201
recor@@ 89191
接 89190
cosa 89188
Upper 89183
тные 89181
phy@@ 89179
woods 89175
đây 89164
bones 89158
Local 89149
hist@@ 89147
愛 89147
alex 89143
rats 89140
volumes 89130
indeed 89129
Aunque 89124
Wolf 89119
城市 89114
дж@@ 89103
власти 89093
своё 89093
Wie 89083
grat@@ 89082
Hälfte 89074
contest 89061
nahe 89050
tery 89048
FL 89047
Tamil 89047
intense 89032
pan 89023
trata 89020
chase 89011
Andreas 89008
Colonel 89006
turno 88997
男性 88984
tou@@ 88964
uli 88962
monte 88930
Stat@@ 88914
electoral 88910
Во@@ 88909
والت@@ 88900
Valencia 88895
oles 88895
лл 88891
kos@@ 88885
ческим 88883
reflec@@ 88882
當@@ 88879
sinds 88875
Kro@@ 88870
rode 88869
initiative 88868
enhan@@ 88862
ppen 88856
Rac@@ 88855
リア 88846
mirror 88844
CE 88813
boss 88809
llegar 88807
ックス 88798
Mars 88793
老@@ 88793
YouTube 88781
compilation 88778
Cin@@ 88775
Marina 88772
day@@ 88771
umbled 88759
chil@@ 88757
12,@@ 88751
Bern@@ 88741
partnership 88732
ump@@ 88730
Fußball@@ 88729
हो 88728
intern@@ 88723
Even 88722
SI@@ 88715
客 88714
Zar@@ 88706
econom@@ 88680
suicide 88677
Alaska 88668
ordine 88655
französische 88654
Входит 88640
populaire 88636
太@@ 88635
Mitchell 88631
Länge 88630
mặt 88626
serait 88621
Hart@@ 88613
ghi 88603
Spiele 88590
meilleur 88587
До 88575
Gem@@ 88573
ひ@@ 88571
ño 88561
vocal 88549
Warszawie 88537
emerged 88526
berry 88519
bid 88514
five-@@ 88492
больше 88480
uri@@ 88473
evalu@@ 88471
Academia 88470
Dam 88468
migr@@ 88466
挙げ 88461
contributions 88460
Metro 88458
eleven 88447
dop@@ 88435
Ecuador 88429
tid 88429
Chart 88422
則@@ 88421
Thur@@ 88407
duc 88394
downtown 88389
mt 88389
blin@@ 88388
クラブ 88382
jugador 88380
Natural 88379
Cri@@ 88376
mining 88375
Repubblica 88372
المدينة 88345
高度 88345
aj 88338
Dakota 88330
tas@@ 88327
само@@ 88318
39@@ 88306
gras@@ 88303
детей 88301
Falls 88288
ink 88286
geworden 88285
diplom@@ 88284
lich@@ 88278
洋 88266
Bow@@ 88263
sexu@@ 88260
Nigeria 88258
105 88254
Rev@@ 88254
Laura 88250
beträgt 88247
rapidly 88246
龍@@ 88242
Fle@@ 88237
xi 88228
Digital 88226
gminie 88223
atively 88222
왕@@ 88222
報 88214
Direc@@ 88206
ホーム 88191
nehmen 88176
classic 88171
illon 88160
Rau@@ 88157
eme 88154
pues 88153
designer 88151
bell 88149
smoke 88135
Romania 88133
ethnic 88122
amt 88114
الد@@ 88112
toàn 88111
gminy 88106
tari@@ 88102
pink 88101
approval 88095
figlia 88083
ink@@ 88079
agi@@ 88075
havia 88066
sortie 88056
gathered 88055
equivalent 88049
shes 88045
eher 88031
flag 88029
bry@@ 88025
appropriate 88021
cash 88008
represent@@ 88005
但是 88005
reputation 87998
quad@@ 87988
chn@@ 87984
issent 87980
Louise 87978
fting 87940
jury 87940
światowej 87912
southeast 87904
otti 87898
avuto 87889
ater@@ 87886
enes 87869
single-@@ 87867
itos 87863
현@@ 87853
MS@@ 87848
Ed 87839
amerikanischen 87839
zan@@ 87828
compañía 87822
нами 87802
rod@@ 87799
льные 87798
リン 87797
residential 87795
Ông 87775
stab@@ 87772
16-@@ 87771
Kaz@@ 87769
stuck 87763
musician 87750
различных 87747
half@@ 87731
Bed@@ 87725
実施 87725
支援 87721
Guard 87719
배@@ 87717
17,@@ 87716
north@@ 87703
pper 87689
crimin@@ 87671
đề 87657
eived 87656
successivamente 87647
Works 87641
Arg@@ 87639
Kot@@ 87637
루@@ 87634
cleared 87622
ceinture 87603
đất 87600
đặc 87592
unità 87569
Rom 87554
plo@@ 87544
spr@@ 87525
athers 87518
サッカー 87506
voyage 87503
tec@@ 87501
lago 87493
movements 87487
Note 87480
各@@ 87475
aat 87468
second-@@ 87462
canção 87456
آ@@ 87451
世@@ 87449
Segundo 87448
fren@@ 87447
vic 87442
요@@ 87437
ege 87434
PC@@ 87430
Пу@@ 87421
تي@@ 87391
設 87381
countyt 87375
उन 87375
outubro 87356
-P@@ 87350
gällande 87350
Università 87328
constitution 87319
hunter 87315
vera 87315
occidentale 87309
ني 87309
ather@@ 87298
investment 87295
flesh 87272
oir 87260
subjects 87259
вский 87259
ough 87247
HD 87236
unusual 87235
Open@@ 87229
olo@@ 87229
bisher 87213
людей 87206
Ż@@ 87193
debuted 87184
Aw@@ 87178
ffed 87177
daughters 87176
ゲ@@ 87173
ヤ@@ 87173
1820 87171
bron@@ 87169
einzige 87136
需要 87133
offen@@ 87125
Grenze 87121
津 87120
lt 87119
fted 87110
justi@@ 87106
文字 87105
industri@@ 87103
Stad@@ 87089
frac@@ 87089
構造 87089
lui-même 87080
nombrado 87066
指揮 87061
mere 87060
grinned 87053
releg@@ 87052
ffer 87048
री 87047
zug 87041
Portland 87039
ライ@@ 87025
Zentrum 87020
laughing 86998
te-@@ 86977
possibility 86965
kommun@@ 86955
Alberta 86954
Gesamt@@ 86953
geomet@@ 86952
Wild 86948
childhood 86947
poverty 86938
Arbeiten 86927
bb@@ 86917
Dav@@ 86905
则 86900
라 86900
load 86887
pictures 86883
skri@@ 86883
chamber 86874
fusion 86874
vely 86874
cheeks 86846
170 86843
Mac 86839
iga 86831
Wahl 86811
ě@@ 86811
提 86809
Sag@@ 86808
lade 86786
marry 86784
eby 86781
premiered 86766
represents 86755
Censo 86752
fö@@ 86748
pes@@ 86746
Af@@ 86739
endorf 86739
inser@@ 86737
sanc@@ 86727
quelli 86718
obtuvo 86716
Tet@@ 86708
тия 86675
fishing 86657
ce-@@ 86654
чно 86642
DO@@ 86641
Hungary 86641
description 86635
issant 86630
unico 86627
occasionally 86623
ular@@ 86623
ча 86623
osi@@ 86622
करने 86616
teurs 86608
CR@@ 86598
formazione 86597
bottle 86593
äre 86584
spending 86576
năng 86564
rail@@ 86547
chuyển 86546
chu@@ 86538
blocks 86536
ilo 86535
créée 86534
部@@ 86531
South@@ 86529
hot@@ 86528
телем 86526
honneur 86524
Militär@@ 86517
g-@@ 86515
东@@ 86515
matters 86511
temperatura 86493
atif 86487
Comme 86479
культуры 86479
movimiento 86478
ون@@ 86470
ar-@@ 86455
Ivan 86439
measures 86436
文学 86434
щи@@ 86433
т-@@ 86423
Stre@@ 86421
setembro 86409
上海 86408
restored 86407
Wohn@@ 86386
Lot@@ 86384
Hö@@ 86379
Kinder@@ 86377
testing 86376
Родился 86372
intention 86353
板 86343
声 86323
ree 86307
concentration 86305
add 86295
移籍 86295
станции 86290
opp@@ 86277
elecciones 86269
campeonato 86266
tast@@ 86263
Mr 86251
cot@@ 86249
Так 86249
beating 86244
artistas 86242
Vegas 86229
filho 86228
stad@@ 86205
Abraham 86203
stim@@ 86200
以@@ 86184
buil@@ 86182
occasione 86181
burst 86177
dades 86174
suc@@ 86173
Vir@@ 86170
Phil 86162
Leiter 86149
從@@ 86139
municipalité 86137
цкого 86137
hero 86125
esso 86118
eted 86116
Winter@@ 86111
Zuge 86109
jack@@ 86109
southwest 86104
släkte 86099
protest 86096
shel@@ 86089
mento 86083
opped 86083
фо@@ 86068
рия 86067
Herrschaft 86066
storage 86065
grupy 86058
Hilfe 86057
militare 86052
translated 86031
gat@@ 86028
分布 86018
Nicholas 86010
tho@@ 86008
skil@@ 86002
6th 85993
hóa 85992
商@@ 85992
annonce 85991
成為 85990
aye 85977
aur@@ 85975
作@@ 85972
capo 85964
cô 85961
Пре@@ 85946
EU 85945
mobil@@ 85924
Rights 85910
Saf@@ 85910
э 85907
ix 85896
эк@@ 85886
visu@@ 85870
tutta 85867
frowned 85854
ほとんど 85853
Jerusalem 85850
vampires 85826
eers 85824
voix 85819
때 85813
emergency 85810
distrac@@ 85805
तर 85803
generalmente 85802
autonom@@ 85800
Leu@@ 85797
жа 85796
compétition 85790
remar@@ 85784
Hampshire 85783
Pis@@ 85779
مع@@ 85778
attrac@@ 85763
Gymnasium 85762
Rich@@ 85757
scared 85749
anders 85724
indicated 85722
過 85710
أن@@ 85706
Sac@@ 85705
glance 85700
figur@@ 85699
аль@@ 85694
expect 85693
kirche 85659
beck 85657
celles 85650
пор@@ 85647
Produktion 85645
Cle@@ 85639
étude 85637
sistemas 85636
categoría 85628
venue 85625
auprès 85616
니@@ 85614
こう 85605
cop@@ 85599
aty 85598
boy@@ 85589
verde 85582
学生 85576
phương 85573
ål@@ 85567
卡 85565
plats 85559
orange 85554
Pseud@@ 85540
мы@@ 85519
ब 85493
Kit@@ 85492
جا@@ 85486
scher@@ 85477
стало 85468
政策 85462
Model 85458
smooth 85438
short@@ 85436
dezembro 85428
Kriegs@@ 85416
sí 85407
hielt 85406
イタリア 85404
secure 85389
Leitung 85373
CN@@ 85368
Ihr 85367
High@@ 85366
ード 85365
Angola 85364
vient 85346
buch 85345
Tot@@ 85343
alli 85341
TE@@ 85340
ray@@ 85340
consult@@ 85339
gast@@ 85339
steam 85335
conce@@ 85332
meg@@ 85325
späteren 85320
beli@@ 85315
zel 85296
Antalet 85289
retained 85270
Erst 85266
Из 85264
moves 85256
só 85248
realizó 85232
مي 85231
Wat@@ 85217
struttura 85214
historique 85204
アー@@ 85200
pari 85197
1793 85194
15,@@ 85189
względem 85188
стве 85184
Nas@@ 85182
Challenge 85179
Julius 85177
ただし 85177
ayan 85168
irs 85162
flora 85157
プ 85157
10,000 85153
enjoy 85151
vag@@ 85141
Energy 85139
eses 85139
victims 85139
知@@ 85135
ingar 85125
nią 85123
liên 85118
dige 85116
أول 85099
P.@@ 85097
wohl 85097
müssen 85084
hija 85083
Pendant 85078
beste 85078
число 85049
riding 85027
PT@@ 85026
ヴァ@@ 85020
gaat 85017
оста@@ 85013
ذ@@ 84991
locales 84979
Feder@@ 84975
gram@@ 84969
葉 84961
lus@@ 84954
pu 84937
aties 84933
üt@@ 84933
cken 84932
新聞 84932
nade 84930
AF 84929
soil 84920
Gesch@@ 84917
março 84915
Bristol 84913
ها@@ 84902
DDR 84899
規模 84890
Bobby 84885
brasileiro 84878
pet 84864
disper@@ 84860
facilit@@ 84857
عة 84857
ジェ@@ 84835
основном 84826
anywhere 84816
mujer 84815
hijos 84809
particulièrement 84791
保@@ 84772
keeper 84770
cool@@ 84768
okresie 84764
藩 84759
entrée 84752
realizado 84752
武 84734
Las@@ 84730
قدم 84730
вин@@ 84723
Ori@@ 84716
rend 84712
степени 84695
gebäude 84694
asta 84693
López 84685
gil@@ 84671
ataque 84667
inian 84667
groot 84663
maio 84663
entos 84662
Richmond 84649
weekly 84646
Hat@@ 84644
genom@@ 84638
văn 84632
改@@ 84630
got@@ 84619
publ@@ 84614
gebouwd 84612
quit@@ 84612
設定 84612
Anschließend 84603
hyper@@ 84603
hing 84592
ult@@ 84592
nah 84591
lem 84584
contiene 84583
ву@@ 84566
ographie 84564
diam@@ 84561
intercep@@ 84561
janeiro 84561
iness 84559
종@@ 84558
batalla 84554
waves 84547
Fund@@ 84534
вра@@ 84516
atter@@ 84496
N-@@ 84487
Regel 84485
Cultural 84483
Clinton 84482
privat@@ 84474
AG@@ 84472
deed 84468
fratello 84468
orn 84468
elia 84466
Communist 84458
奥@@ 84452
características 84447
gegeben 84445
itar@@ 84439
cep@@ 84435
ع 84435
Airlines 84434
itz@@ 84409
하기 84388
minutos 84380
Bud@@ 84371
potenti@@ 84359
島@@ 84348
fuerzas 84341
mb@@ 84330
soldier 84328
sending 84326
eating 84309
Pero 84306
comprend 84294
隊@@ 84294
muttered 84261
Bob@@ 84255
bình 84252
factors 84251
sleeping 84251
Officer 84250
eering 84237
giữa 84236
Alfonso 84230
listening 84226
começou 84220
лла 84216
Lloyd 84215
jas 84208
ovi@@ 84207
Tex@@ 84192
fik@@ 84180
violent 84169
7th 84167
pus 84167
Now@@ 84159
тель@@ 84158
Danish 84156
bevor 84152
enthält 84148
façon 84148
yoktur 84130
uni 84124
acces@@ 84122
Yorkshire 84112
onlyinclude 84112
suggests 84103
shake 84102
Blo@@ 84097
Door 84096
Cum@@ 84095
avi 84088
oga 84074
Verwaltungs@@ 84073
Ple@@ 84062
hermano 84059
anno@@ 84056
والتي 84054
dra 84053
copy 84040
Église 84038
auer 84036
resemb@@ 84026
ды@@ 84019
limit 84010
terenie 84005
the-@@ 84001
つけ 83995
iker 83994
romana 83985
エンジン 83980
18,@@ 83978
клуба 83975
gab@@ 83967
Thailand 83966
込 83961
Lage 83953
TC 83947
cap 83945
17th 83931
دون 83931
к-@@ 83922
Aufgrund 83919
гре@@ 83916
subur@@ 83910
sevent@@ 83909
Eg@@ 83908
ologi@@ 83898
unt@@ 83898
Kri@@ 83895
tratta 83895
symbol 83887
Agency 83882
短 83876
passou 83874
zony 83871
cré@@ 83869
행@@ 83866
季 83861
Đông 83860
actors 83859
teenth 83856
вар@@ 83850
ź@@ 83848
म@@ 83848
forehead 83847
мор@@ 83840
pau@@ 83837
politica 83837
количество 83837
guilty 83831
benefit 83821
jug@@ 83819
aken 83816
profesor 83815
grab 83814
concerns 83813
酸 83805
Elisabeth 83804
Dick 83795
involving 83771
Training 83763
weiterhin 83757
traveled 83752
alità 83747
popularity 83743
漫画 83742
dog@@ 83736
emma 83732
主に 83723
whis@@ 83721
Roman@@ 83716
cave 83716
bond 83714
coinci@@ 83705
対応 83689
Uma 83684
tos@@ 83681
six@@ 83672
kich 83667
verbunden 83657
нескольких 83657
1810 83643
失 83642
切 83639
mines 83620
droite 83612
retro@@ 83611
hé@@ 83610
dirección 83608
weit@@ 83606
Nau@@ 83600
iro 83599
16.@@ 83598
rocks 83589
temporary 83580
dict@@ 83570
enjo@@ 83558
phon@@ 83555
drugs 83550
jac@@ 83549
군 83546
戻 83543
civile 83538
memories 83535
faisant 83520
gues 83517
eler 83515
representa 83513
2010年 83510
comandante 83510
тии 83498
devices 83497
shouted 83497
occup@@ 83496
drinking 83491
rica 83491
Staat@@ 83490
fortunately 83489
äh@@ 83489
事務 83484
妻 83480
Bart@@ 83479
Lad@@ 83473
布 83472
мировой 83465
علي 83464
comunque 83460
deposit@@ 83454
alliance 83446
russe 83445
Ath@@ 83442
كم 83442
Великой 83419
Phoenix 83408
clothing 83408
morph@@ 83401
significantly 83399
н. 83393
đạo 83361
дер@@ 83356
atur@@ 83352
formación 83352
серии 83320
cé@@ 83307
здесь 83307
arri@@ 83299
vive 83287
glan@@ 83279
многих 83254
إحدى 83252
ró@@ 83245
oa 83227
demon 83224
ethan 83216
認め 83210
penet@@ 83197
studi 83190
тысяч 83190
hombre 83174
quant 83163
veget@@ 83159
nä@@ 83157
musée 83152
trop 83152
sex@@ 83142
amer@@ 83139
grund 83132
four@@ 83127
Rey 83125
mir 83109
ace@@ 83107
Cet 83106
nhau 83103
innan 83075
assez 83073
easier 83072
quarters 83068
española 83063
кий 83055
ands 83048
mensen 83037
Akademie 83036
Fili@@ 83031
Ward 83031
Peace 83024
Anche 83010
mrs. 83009
German@@ 83006
cking 83002
precedente 83002
frühen 82995
Später 82989
julho 82977
ドル 82977
чемпионате 82972
Ji@@ 82970
Terry 82966
differences 82964
ダー 82951
Hur@@ 82948
motivo 82943
landen 82933
Lan 82929
mat 82929
另 82928
knoc@@ 82921
occasions 82915
supérieur 82885
Teheran 82882
fahrt 82876
đang 82875
North@@ 82874
palace 82863
士@@ 82862
hr 82855
Heritage 82850
devido 82843
2009年 82840
arily 82832
Ble@@ 82829
陳@@ 82815
ister 82814
Durant 82808
orientale 82807
string 82796
provinces 82792
equipe 82791
zonas 82790
Отечественной 82783
стан@@ 82782
ð@@ 82769
Steven 82768
nghiệp 82760
continuing 82753
zung 82739
plantas 82727
сер@@ 82727
دو@@ 82723
jake 82722
لة 82719
cos 82716
fäl@@ 82711
Liv@@ 82699
ニ 82694
politiques 82691
prisoners 82680
مة 82661
100@@ 82659
1833 82659
imag@@ 82658
SN@@ 82655
Through 82648
Zürich 82648
ющего 82648
famoso 82646
Singh 82645
ig 82643
organ 82642
交@@ 82637
Basketball 82636
Cristo 82631
Our 82622
a.@@ 82621
стом 82621
mern 82613
청@@ 82613
Bach@@ 82612
comte 82612
follow@@ 82612
classified 82608
arie 82602
Marvel 82589
pies 82586
Lower 82584
Rang 82578
飛行 82577
лением 82564
임@@ 82557
regard 82548
Hudson 82537
rées 82533
view@@ 82527
ref@@ 82522
sne@@ 82516
empire 82505
भारत 82505
offre 82502
pose 82498
以来 82492
185@@ 82490
своим 82490
또한 82489
expensive 82476
reign 82465
Congo 82458
들이 82451
II@@ 82447
lucky 82444
Tou@@ 82443
台@@ 82442
östlich 82440
Crown 82434
Neil 82432
jur@@ 82430
fiume 82426
転@@ 82416
exposed 82415
Privat@@ 82413
千@@ 82404
fum@@ 82402
発見 82400
assassin@@ 82399
refu@@ 82398
북@@ 82398
Plaza 82389
try@@ 82381
Graf 82368
recru@@ 82364
paso 82362
望 82357
Bachelor 82346
atteint 82342
Republik 82341
proche 82328
ディ 82327
escrito 82311
Kron@@ 82307
lon 82293
1813 82285
Ду@@ 82283
flows 82280
stellung 82267
rescue 82260
backed 82255
Gruppen 82246
巻 82238
heid 82234
rut@@ 82233
Petersburg 82228
strip 82222
؛ 82209
レー@@ 82203
heart@@ 82199
Académie 82194
legte 82184
happening 82172
建@@ 82154
armas 82149
저@@ 82146
Esto 82145
wander@@ 82135
départ 82115
ellement 82114
brano 82103
Под@@ 82094
decir 82091
lana 82074
nervous 82068
Hannover 82066
ende@@ 82064
ющая 82062
elkaar 82061
Rica 82055
mix 82053
Belgium 82049
建立 82042
novela 82035
Ray@@ 82034
Up@@ 82029
Zahl 82028
revol@@ 82024
地球 82017
careful 82013
Eddie 82004
他们 82001
volkstelling 81988
没有 81988
ком@@ 81985
ador@@ 81980
illegal 81977
Collins 81975
Albums 81966
manage 81959
entfernt 81955
Tap@@ 81947
mir@@ 81940
Аль@@ 81940
Theo 81932
valle 81926
dying 81922
izing 81916
星@@ 81916
Martín 81911
江戸 81898
ne-@@ 81896
搭載 81894
fam@@ 81889
fet@@ 81888
Rick 81885
subito 81881
sviluppo 81881
Perry 81880
Sua 81876
plaatsen 81872
hang@@ 81864
ани@@ 81854
越 81842
novels 81837
работу 81836
Zer@@ 81835
rable 81829
Additionally 81823
dation 81822
Г. 81822
первого 81821
strateg@@ 81818
Ottoman 81814
디@@ 81801
разде@@ 81799
principali 81798
أو@@ 81796
nằm 81791
リング 81776
ار@@ 81770
Hochschule 81746
markets 81740
destroy 81738
ок@@ 81734
gin@@ 81725
iken 81722
Classic 81714
lediglich 81713
塔@@ 81710
fecha 81707
Hinter@@ 81696
Gon@@ 81693
eb 81690
Castro 81685
every@@ 81685
ceiling 81680
Kreuz@@ 81679
drag@@ 81670
Sang@@ 81660
cable 81651
Ernest 81645
Muhammad 81629
pushing 81624
cinéma 81616
hoch@@ 81610
huit 81609
щих 81608
james 81602
Big@@ 81597
atten@@ 81584
aumento 81572
源 81571
ям 81565
as-@@ 81563
syl@@ 81555
下辖 81555
ion@@ 81553
visitors 81541
pseud@@ 81539
semble 81538
тора 81537
قا@@ 81531
戦闘 81519
Mog@@ 81510
Bron@@ 81506
ui 81503
gez@@ 81502
faculty 81501
ري 81498
Chiesa 81475
eway 81470
signing 81470
宮@@ 81465
será 81462
sci@@ 81460
1821 81456
منطقة 81453
enda 81447
socken 81441
Flug@@ 81431
Rak@@ 81431
wished 81422
squadre 81418
movies 81415
ふ@@ 81413
publishing 81399
scheme 81399
führung 81393
足 81385
ших 81379
soorten 81367
ана@@ 81361
Welsh 81358
教会 81358
ocy@@ 81324
30-@@ 81318
생@@ 81315
UA 81313
terreno 81313
gods 81305
чемпионата 81290
ég@@ 81286
critique 81280
Werner 81277
Wall 81271
Florence 81255
commemor@@ 81255
Bien 81253
Tommy 81250
weisen 81240
requires 81230
Angel 81220
方向 81219
クラ@@ 81215
Doppel@@ 81211
Ś@@ 81208
號 81208
環境 81201
打@@ 81199
nahmen 81195
Iglesia 81189
وج@@ 81184
が@@ 81175
управления 81174
membership 81167
結婚 81163
truyền 81158
colon@@ 81148
共@@ 81136
罗@@ 81133
actividad 81132
altar 81118
は@@ 81116
Jay 81112
體 81112
strongly 81107
organización 81106
Fläche 81102
realizar 81093
Mant@@ 81086
ро 81065
商 81065
1806 81064
يتم 81053
أما 81050
supplies 81048
自治 81044
ーク 81040
Transport 81037
мужчин 81036
таких 81035
кла@@ 81033
новых 81023
châu 81016
totally 81008
라는 81006
denna 81002
Multi@@ 81001
sisters 80997
르@@ 80995
Action 80988
grip 80978
Belgique 80969
aspect 80960
linie 80958
登 80955
公式 80954
tiques 80948
Luke 80942
رية 80937
gemaakt 80932
Ehe 80930
若 80896
2月 80878
ティ 80878
Denmark 80872
zespołu 80871
티@@ 80871
Loire 80870
納@@ 80867
Bahn@@ 80844
ева 80844
amor 80828
aph@@ 80814
barn 80814
fix 80813
statunitense 80813
вос@@ 80812
мин@@ 80811
kad@@ 80801
oben 80798
Eduardo 80793
hated 80792
jed@@ 80790
نا 80786
Ukrainian 80784
dr. 80779
unlike 80776
초@@ 80761
Pier@@ 80756
Yam@@ 80747
Союза 80740
工@@ 80737
belonged 80732
produits 80728
arma 80724
dedic@@ 80718
sof@@ 80713
190@@ 80707
lian 80703
линии 80701
図 80695
gdy 80692
harder 80672
commen@@ 80668
201@@ 80664
hä@@ 80664
romano 80664
stroke 80662
Pradesh 80655
depth 80651
eign@@ 80647
conscious 80631
signe 80621
zar 80616
नहीं 80614
Epi@@ 80612
Got@@ 80612
tender 80606
distretto 80603
hts 80603
Она 80599
michael 80595
Trophy 80594
Cook 80593
otrzymał 80593
Defense 80572
chic@@ 80570
ura@@ 80558
Bar 80552
協会 80552
Gulf 80550
convention 80548
国内 80548
fau@@ 80545
ッド 80545
ambi@@ 80538
ritorno 80538
sim@@ 80538
nymi 80535
Domin@@ 80533
radar 80528
xes 80508
lasted 80498
nimmt 80497
ल 80490
pubblico 80482
Gat@@ 80457
nieder@@ 80441
sely 80438
.C. 80428
endor@@ 80427
deliber@@ 80418
várias 80418
sad 80411
internationalen 80406
oba 80396
hunting 80395
anniversary 80394
тур@@ 80387
deb@@ 80383
adap@@ 80374
guide 80371
novembro 80369
deeply 80356
войск 80355
Nation 80354
بشكل 80346
bord 80343
há 80340
пар@@ 80333
[...]
